unsigned char speech_commands_model_tflite[] = {
  0x1c, 0x00, 0x00, 0x00, 0x54, 0x46, 0x4c, 0x33, 0x14, 0x00, 0x20, 0x00,
  0x1c, 0x00, 0x18, 0x00, 0x14, 0x00, 0x10, 0x00, 0x0c, 0x00, 0x00, 0x00,
  0x08, 0x00, 0x04, 0x00, 0x14, 0x00, 0x00, 0x00, 0x1c, 0x00, 0x00, 0x00,
  0x90, 0x00, 0x00, 0x00, 0xe8, 0x00, 0x00, 0x00, 0x10, 0x2f, 0x00, 0x00,
  0x20, 0x2f, 0x00, 0x00, 0x44, 0x3c, 0x00, 0x00, 0x03, 0x00, 0x00, 0x00,
  0x01, 0x00, 0x00, 0x00, 0x04, 0x00, 0x00, 0x00, 0xde, 0xcf, 0xff, 0xff,
  0x0c, 0x00, 0x00, 0x00, 0x1c, 0x00, 0x00, 0x00, 0x40, 0x00, 0x00, 0x00,
  0x0f, 0x00, 0x00, 0x00, 0x73, 0x65, 0x72, 0x76, 0x69, 0x6e, 0x67, 0x5f,
  0x64, 0x65, 0x66, 0x61, 0x75, 0x6c, 0x74, 0x00, 0x01, 0x00, 0x00, 0x00,
  0x04, 0x00, 0x00, 0x00, 0x8c, 0xff, 0xff, 0xff, 0x14, 0x00, 0x00, 0x00,
  0x04, 0x00, 0x00, 0x00, 0x0d, 0x00, 0x00, 0x00, 0x61, 0x63, 0x74, 0x69,
  0x76, 0x61, 0x74, 0x69, 0x6f, 0x6e, 0x5f, 0x36, 0x36, 0x00, 0x00, 0x00,
  0x01, 0x00, 0x00, 0x00, 0x04, 0x00, 0x00, 0x00, 0xca, 0xd0, 0xff, 0xff,
  0x04, 0x00, 0x00, 0x00, 0x0f, 0x00, 0x00, 0x00, 0x63, 0x6f, 0x6e, 0x76,
  0x32, 0x64, 0x5f, 0x36, 0x30, 0x5f, 0x69, 0x6e, 0x70, 0x75, 0x74, 0x00,
  0x02, 0x00, 0x00, 0x00, 0x34, 0x00, 0x00, 0x00, 0x04, 0x00, 0x00, 0x00,
  0xdc, 0xff, 0xff, 0xff, 0x17, 0x00, 0x00, 0x00, 0x04, 0x00, 0x00, 0x00,
  0x13, 0x00, 0x00, 0x00, 0x43, 0x4f, 0x4e, 0x56, 0x45, 0x52, 0x53, 0x49,
  0x4f, 0x4e, 0x5f, 0x4d, 0x45, 0x54, 0x41, 0x44, 0x41, 0x54, 0x41, 0x00,
  0x08, 0x00, 0x0c, 0x00, 0x08, 0x00, 0x04, 0x00, 0x08, 0x00, 0x00, 0x00,
  0x16, 0x00, 0x00, 0x00, 0x04, 0x00, 0x00, 0x00, 0x13, 0x00, 0x00, 0x00,
  0x6d, 0x69, 0x6e, 0x5f, 0x72, 0x75, 0x6e, 0x74, 0x69, 0x6d, 0x65, 0x5f,
  0x76, 0x65, 0x72, 0x73, 0x69, 0x6f, 0x6e, 0x00, 0x18, 0x00, 0x00, 0x00,
  0x24, 0x2e, 0x00, 0x00, 0x1c, 0x2e, 0x00, 0x00, 0x0c, 0x2a, 0x00, 0x00,
  0xdc, 0x29, 0x00, 0x00, 0xac, 0x29, 0x00, 0x00, 0x7c, 0x29, 0x00, 0x00,
  0x4c, 0x28, 0x00, 0x00, 0x3c, 0x1f, 0x00, 0x00, 0x2c, 0x16, 0x00, 0x00,
  0x0c, 0x16, 0x00, 0x00, 0xfc, 0x14, 0x00, 0x00, 0xe4, 0x14, 0x00, 0x00,
  0xd4, 0x00, 0x00, 0x00, 0xcc, 0x00, 0x00, 0x00, 0xc4, 0x00, 0x00, 0x00,
  0xbc, 0x00, 0x00, 0x00, 0xb4, 0x00, 0x00, 0x00, 0xac, 0x00, 0x00, 0x00,
  0xa4, 0x00, 0x00, 0x00, 0x9c, 0x00, 0x00, 0x00, 0x94, 0x00, 0x00, 0x00,
  0x8c, 0x00, 0x00, 0x00, 0x6c, 0x00, 0x00, 0x00, 0x04, 0x00, 0x00, 0x00,
  0xa6, 0xd1, 0xff, 0xff, 0x04, 0x00, 0x00, 0x00, 0x58, 0x00, 0x00, 0x00,
  0x0c, 0x00, 0x00, 0x00, 0x08, 0x00, 0x0e, 0x00, 0x08, 0x00, 0x04, 0x00,
  0x08, 0x00, 0x00, 0x00, 0x10, 0x00, 0x00, 0x00, 0x28, 0x00, 0x00, 0x00,
  0x00, 0x00, 0x06, 0x00, 0x08, 0x00, 0x04, 0x00, 0x06, 0x00, 0x00, 0x00,
  0x04, 0x00, 0x00, 0x00, 0x01, 0x00, 0x00, 0x00, 0xea, 0x03, 0x00, 0x00,
  0x00, 0x00, 0x0a, 0x00, 0x10, 0x00, 0x0c, 0x00, 0x08, 0x00, 0x04, 0x00,
  0x0a, 0x00, 0x00, 0x00, 0x02, 0x00, 0x00, 0x00, 0x02, 0x00, 0x00, 0x00,
  0x04, 0x00, 0x00, 0x00, 0x06, 0x00, 0x00, 0x00, 0x32, 0x2e, 0x31, 0x35,
  0x2e, 0x30, 0x00, 0x00, 0x0a, 0xd2, 0xff, 0xff, 0x04, 0x00, 0x00, 0x00,
  0x10, 0x00, 0x00, 0x00, 0x32, 0x2e, 0x33, 0x2e, 0x30, 0x00, 0x00, 0x00,
  0x00, 0x00, 0x00, 0x00, 0x00, 0x00, 0x00, 0x00, 0xc0, 0xc5, 0xff, 0xff,
  0xc4, 0xc5, 0xff, 0xff, 0xc8, 0xc5, 0xff, 0xff, 0xcc, 0xc5, 0xff, 0xff,
  0xd0, 0xc5, 0xff, 0xff, 0xd4, 0xc5, 0xff, 0xff, 0xd8, 0xc5, 0xff, 0xff,
  0xdc, 0xc5, 0xff, 0xff, 0xe0, 0xc5, 0xff, 0xff, 0x4a, 0xd2, 0xff, 0xff,
  0x04, 0x00, 0x00, 0x00, 0x00, 0x14, 0x00, 0x00, 0x1a, 0xf8, 0xe2, 0x11,
  0x13, 0x1c, 0x13, 0xb5, 0x06, 0x0c, 0xf2, 0x31, 0x06, 0x0f, 0x1e, 0xf1,
  0xd0, 0xfd, 0x05, 0xd1, 0xd3, 0xff, 0x2c, 0x00, 0xe1, 0xdb, 0xf9, 0xe1,
  0x0b, 0x0c, 0xd7, 0x03, 0x0a, 0x19, 0xdc, 0xf6, 0xf2, 0x14, 0xcf, 0xce,
  0xf1, 0x0a, 0xfe, 0x13, 0x04, 0xe6, 0xe2, 0xe9, 0xc7, 0x11, 0xf8, 0x13,
  0x10, 0xec, 0xf8, 0xf5, 0xba, 0xf4, 0x1b, 0xfd, 0x24, 0xec, 0xe3, 0x1b,
  0x03, 0x0f, 0x27, 0xdb, 0x10, 0x02, 0xfa, 0x51, 0x2b, 0x06, 0x3d, 0x00,
  0x0a, 0x37, 0xe0, 0x18, 0x14, 0xe9, 0x08, 0x03, 0x03, 0x0a, 0xf2, 0xf1,
  0xe2, 0x0b, 0x3f, 0xf5, 0x02, 0x08, 0x17, 0xf0, 0xeb, 0xf4, 0xeb, 0xf4,
  0xed, 0x02, 0xfe, 0xec, 0xfb, 0xe5, 0xf4, 0x14, 0xf3, 0x1e, 0xf2, 0xfe,
  0xf8, 0x13, 0x30, 0x0a, 0x18, 0xd2, 0xe5, 0xeb, 0x0b, 0xed, 0x1c, 0xf3,
  0xd6, 0xe7, 0x01, 0xff, 0x16, 0x00, 0x01, 0xdf, 0xf9, 0x22, 0xfd, 0xd8,
  0xee, 0x0b, 0xec, 0xfc, 0xf7, 0x01, 0xf5, 0x25, 0x03, 0xfc, 0x13, 0xf1,
  0xf2, 0xf1, 0x15, 0xf0, 0x15, 0x24, 0x1a, 0xe7, 0xe0, 0x05, 0x16, 0xff,
  0xf3, 0xf0, 0x00, 0xc7, 0xfa, 0x1f, 0xab, 0x10, 0x0d, 0xf9, 0xc7, 0xfc,
  0xf8, 0x1d, 0xe2, 0xf6, 0x10, 0x13, 0xcf, 0x21, 0xfb, 0x26, 0xf9, 0xf5,
  0x14, 0xf0, 0xd2, 0x0c, 0xf8, 0x0f, 0x23, 0x20, 0x1d, 0x07, 0xdf, 0x08,
  0xed, 0x2b, 0x1a, 0xfc, 0xfe, 0x06, 0x1c, 0xce, 0xfd, 0xd6, 0xd4, 0x09,
  0x18, 0xfd, 0x15, 0xdc, 0x2b, 0xdc, 0x06, 0x1e, 0x0f, 0x03, 0xf4, 0xde,
  0x30, 0xe6, 0x02, 0x22, 0x0e, 0xf6, 0x2b, 0xd8, 0x0d, 0xfd, 0xf2, 0x2c,
  0xe9, 0x06, 0x1c, 0x0a, 0xf9, 0xef, 0xfa, 0x08, 0x04, 0x01, 0xeb, 0x16,
  0x01, 0x15, 0x01, 0x05, 0xfa, 0x0a, 0xcb, 0xed, 0xf9, 0x15, 0x1a, 0x08,
  0x00, 0x0d, 0xdd, 0x0c, 0xf8, 0x0e, 0xf9, 0x18, 0xf3, 0x0e, 0xd7, 0x0e,
  0xf7, 0x21, 0xe7, 0x08, 0x1d, 0x0b, 0xc8, 0x20, 0xdd, 0xfe, 0xf4, 0x27,
  0xdd, 0xb7, 0x05, 0x24, 0xdb, 0xf3, 0x12, 0xe8, 0xfc, 0x07, 0x05, 0xd7,
  0x0d, 0x21, 0x03, 0x19, 0x0b, 0xf0, 0xf7, 0xe1, 0x15, 0xf8, 0xe1, 0xe5,
  0x1c, 0xf6, 0x0e, 0xcf, 0xf0, 0xdb, 0xbf, 0x25, 0x07, 0x15, 0xdf, 0xcf,
  0xd2, 0xea, 0xc7, 0xd2, 0xfb, 0x12, 0x04, 0x31, 0xe3, 0xd8, 0x07, 0x11,
  0x28, 0xfe, 0x01, 0xee, 0xe7, 0xf5, 0x11, 0x1c, 0x23, 0xfb, 0xf1, 0x0b,
  0xf0, 0xec, 0x03, 0x36, 0xe7, 0x00, 0xf1, 0x23, 0xe6, 0xfd, 0xf0, 0x1e,
  0x04, 0x0b, 0x0c, 0xf7, 0xd2, 0x06, 0xf3, 0x22, 0xf2, 0xe3, 0xf3, 0x24,
  0xec, 0x02, 0xc0, 0x07, 0x0f, 0xf1, 0xd3, 0xee, 0xf8, 0xea, 0xdb, 0x1c,
  0x21, 0x1c, 0x05, 0xef, 0x00, 0xff, 0xff, 0x0e, 0x16, 0x04, 0xec, 0xf2,
  0xe5, 0x2b, 0x10, 0x16, 0x15, 0x11, 0x23, 0x16, 0xc3, 0xca, 0xf3, 0x0a,
  0xca, 0xec, 0xd1, 0xe2, 0xfa, 0xfa, 0xf7, 0x05, 0xf9, 0xd3, 0x07, 0x2d,
  0xf1, 0xfe, 0x01, 0x3f, 0x20, 0x04, 0xed, 0x03, 0x03, 0xf7, 0xb0, 0x07,
  0x39, 0xf6, 0x20, 0xf3, 0xf2, 0xf9, 0xf7, 0x02, 0x3a, 0xf6, 0x25, 0x2a,
  0xe7, 0xfa, 0xff, 0x06, 0x00, 0xff, 0x08, 0x12, 0xdf, 0x02, 0x13, 0x06,
  0x03, 0x14, 0x0e, 0xeb, 0x05, 0x0f, 0x11, 0xd8, 0x04, 0xd5, 0x27, 0xf5,
  0xfe, 0xf1, 0xe3, 0x02, 0x0f, 0xc0, 0xf9, 0x35, 0xd3, 0x39, 0x11, 0xfa,
  0x25, 0xd8, 0x3d, 0x13, 0xf0, 0x07, 0x04, 0x14, 0x22, 0x1a, 0xff, 0x2d,
  0xf2, 0xe4, 0xfb, 0x20, 0x08, 0x03, 0x0d, 0x3b, 0xef, 0xd1, 0x1b, 0x16,
  0x22, 0x08, 0xee, 0xe9, 0xf8, 0xfe, 0xfc, 0xde, 0xf9, 0xe1, 0xfb, 0x20,
  0xee, 0xef, 0x06, 0xe4, 0xe4, 0x15, 0xff, 0xeb, 0xf2, 0xfc, 0x12, 0x1a,
  0x04, 0xe2, 0x0a, 0x15, 0xa8, 0xc0, 0xe4, 0x1a, 0x05, 0xf3, 0x0d, 0xfe,
  0x06, 0xdf, 0x07, 0x15, 0xea, 0xb8, 0x1a, 0x1b, 0x09, 0x0c, 0xe0, 0xe8,
  0x08, 0xd9, 0xe5, 0x30, 0xe7, 0x0e, 0x03, 0x19, 0xeb, 0xf8, 0xd7, 0xec,
  0x10, 0x0d, 0xe2, 0xe2, 0xf5, 0x01, 0xdd, 0xd9, 0xf8, 0x2a, 0xf7, 0xec,
  0xe3, 0x24, 0xe7, 0xf9, 0x0d, 0x28, 0x0a, 0xdc, 0x04, 0x02, 0xe9, 0xde,
  0x12, 0x0c, 0x07, 0xd1, 0xf7, 0x08, 0xf3, 0xe9, 0x0a, 0x25, 0x1b, 0xef,
  0xfb, 0x1b, 0xef, 0xd3, 0xfe, 0xf1, 0x03, 0x01, 0xe0, 0x23, 0xfc, 0xeb,
  0x11, 0xf3, 0xda, 0x10, 0xe2, 0xfe, 0x1b, 0xea, 0x27, 0xf2, 0xef, 0xeb,
  0xf9, 0x48, 0xe4, 0xe8, 0x27, 0xff, 0x0c, 0xe6, 0xe4, 0x1c, 0xeb, 0x0e,
  0x16, 0xf0, 0xee, 0xe0, 0xc6, 0x15, 0xe6, 0x1a, 0x10, 0xea, 0x0c, 0xc5,
  0xe8, 0x02, 0x3a, 0xe3, 0x12, 0x0a, 0xfb, 0xf6, 0xd6, 0xc3, 0xec, 0x19,
  0x12, 0x17, 0x1b, 0xf8, 0xf6, 0x18, 0xf3, 0x05, 0xfc, 0x15, 0xf6, 0xe3,
  0xe3, 0x0a, 0xeb, 0x0f, 0x0c, 0xc4, 0xfb, 0xe2, 0xdc, 0xea, 0x02, 0x15,
  0xd8, 0xde, 0xda, 0xe7, 0x16, 0x3b, 0xf1, 0x06, 0x0d, 0x03, 0xf4, 0xfc,
  0xcd, 0x3d, 0xf3, 0xf4, 0x34, 0xfa, 0x36, 0xce, 0xc2, 0x54, 0x0d, 0x2c,
  0xf5, 0xff, 0x37, 0xe0, 0xd3, 0x07, 0x0e, 0x1d, 0x20, 0x18, 0x21, 0xe1,
  0xe4, 0xc2, 0xee, 0x39, 0xd6, 0xd2, 0x2b, 0x37, 0x0d, 0x15, 0xec, 0xc7,
  0xc8, 0x13, 0xe0, 0xe6, 0xfd, 0x06, 0x05, 0xcb, 0x0f, 0xe3, 0x0a, 0xf0,
  0x04, 0xdf, 0x10, 0xcd, 0xfc, 0x0a, 0x1d, 0xef, 0x06, 0xfe, 0xf4, 0x04,
  0xf6, 0x0e, 0x10, 0xe6, 0xe4, 0x0e, 0x0b, 0xef, 0x24, 0xeb, 0x29, 0xe4,
  0xfb, 0xca, 0xfe, 0x16, 0xcf, 0xc7, 0x16, 0x15, 0xf1, 0xf7, 0x19, 0x08,
  0xf1, 0xe9, 0x16, 0x23, 0xf9, 0x23, 0x0e, 0x02, 0xf2, 0xfe, 0xfd, 0x06,
  0x29, 0x33, 0x01, 0xf4, 0x0e, 0x23, 0xe8, 0x09, 0x06, 0x13, 0xfd, 0x16,
  0xf3, 0x02, 0x1c, 0x05, 0x1b, 0xfd, 0xdf, 0x04, 0xf6, 0xf1, 0xd1, 0x0e,
  0x21, 0xe8, 0xf3, 0x1d, 0xff, 0xfe, 0x29, 0xe6, 0xe7, 0xf6, 0x00, 0x19,
  0xbf, 0xa9, 0x19, 0xcf, 0xb4, 0xec, 0x12, 0xdc, 0xb9, 0xfc, 0x0a, 0xfa,
  0xe0, 0xf1, 0xfb, 0xc1, 0xf8, 0x14, 0xa8, 0xe7, 0x08, 0x9c, 0x36, 0x04,
  0xbb, 0xc8, 0x20, 0xf7, 0x05, 0xd7, 0xfa, 0x3c, 0xea, 0xde, 0x17, 0x04,
  0xc9, 0xea, 0x20, 0x2a, 0x1d, 0xef, 0x20, 0xf0, 0xdb, 0x10, 0x0f, 0x00,
  0xee, 0x14, 0x43, 0xf1, 0x15, 0x1e, 0xca, 0xd0, 0x30, 0x17, 0xed, 0x3a,
  0xd4, 0x16, 0x16, 0xd1, 0x35, 0xfd, 0x07, 0x06, 0xeb, 0xe4, 0x15, 0xeb,
  0x0f, 0xd1, 0x04, 0x05, 0xe8, 0xe6, 0xd9, 0xe4, 0xe7, 0x1e, 0xf8, 0xf1,
  0xee, 0xeb, 0xca, 0xd9, 0x16, 0x21, 0xf4, 0xfc, 0xf9, 0x01, 0x31, 0xe7,
  0x1b, 0x06, 0x08, 0x15, 0x27, 0x34, 0xef, 0x01, 0x12, 0x17, 0x16, 0xde,
  0xf8, 0xe9, 0x1f, 0xd6, 0xe4, 0x0f, 0xe0, 0x10, 0xeb, 0x13, 0x0b, 0x0d,
  0xd2, 0x00, 0x05, 0xf0, 0xe1, 0x06, 0xf1, 0xfb, 0x0f, 0xff, 0x21, 0xe1,
  0x1a, 0xfc, 0xe2, 0x15, 0x22, 0xe3, 0xf6, 0x16, 0xc6, 0xed, 0xf7, 0xd5,
  0x24, 0x10, 0x17, 0x04, 0xc3, 0xfa, 0x02, 0xf0, 0x29, 0xf7, 0x05, 0xf7,
  0xe3, 0xf7, 0x1b, 0xf4, 0xf2, 0xf2, 0x0d, 0xe9, 0x09, 0xed, 0x11, 0xf9,
  0xfd, 0xec, 0xeb, 0x04, 0xf4, 0xb2, 0x11, 0xf8, 0xb3, 0xde, 0xd6, 0x0b,
  0x00, 0x42, 0xfd, 0x1a, 0x31, 0xfd, 0xc3, 0x22, 0xff, 0x28, 0x14, 0x03,
  0x40, 0xda, 0x0d, 0x05, 0xed, 0x05, 0xe8, 0x1c, 0x18, 0x20, 0x21, 0x34,
  0xe1, 0xa5, 0x11, 0x0c, 0xbb, 0x08, 0x19, 0xf6, 0x0b, 0xd0, 0xfe, 0x09,
  0x12, 0xe6, 0xf3, 0xeb, 0xe8, 0xd4, 0xdf, 0xed, 0x01, 0xf6, 0xfc, 0x34,
  0x04, 0xed, 0x29, 0x08, 0x0a, 0x04, 0xf6, 0xe5, 0x19, 0xfb, 0x07, 0x0c,
  0x09, 0xf0, 0xf0, 0x01, 0x0a, 0x0a, 0xf7, 0x14, 0xf1, 0xfb, 0xcc, 0x0c,
  0x2b, 0x01, 0x21, 0xe6, 0xe5, 0xe4, 0xd4, 0x22, 0x0a, 0xb3, 0x19, 0x25,
  0xd2, 0xf5, 0xf5, 0x11, 0xfb, 0xf3, 0x23, 0x10, 0x03, 0xf7, 0x16, 0x10,
  0xf6, 0xdb, 0xf7, 0x15, 0xa3, 0xc5, 0x06, 0x15, 0x13, 0xfc, 0xec, 0x07,
  0xd5, 0x10, 0x0d, 0xf7, 0x1a, 0x07, 0x0c, 0xcf, 0x03, 0xf3, 0xf5, 0x05,
  0xf8, 0x12, 0xef, 0xee, 0x1b, 0xe7, 0x1b, 0xf9, 0x1d, 0xf2, 0xe0, 0x01,
  0x25, 0x16, 0x07, 0xce, 0x07, 0x03, 0xda, 0x0a, 0xfa, 0x09, 0xff, 0xd5,
  0xf1, 0xe1, 0xc7, 0x1d, 0x16, 0xe0, 0x33, 0xce, 0xb6, 0xf8, 0xdb, 0xef,
  0x20, 0x1f, 0x10, 0xc4, 0xed, 0x07, 0x16, 0x23, 0xf6, 0xc9, 0xd2, 0x14,
  0x10, 0xf9, 0x22, 0x02, 0xf8, 0xbd, 0xe8, 0x1f, 0xed, 0x0a, 0xf2, 0x21,
  0x2e, 0xe1, 0x14, 0x21, 0xf9, 0x00, 0x06, 0x0c, 0x17, 0xf2, 0x0c, 0xe0,
  0xdd, 0x05, 0x3c, 0x19, 0xf2, 0x17, 0x1b, 0x1e, 0xe5, 0xf7, 0xfd, 0xfd,
  0x1c, 0x01, 0xf3, 0x00, 0xf5, 0xc0, 0x0e, 0x04, 0xf7, 0x19, 0x39, 0xf8,
  0x05, 0xf9, 0x11, 0x00, 0x17, 0x07, 0x0a, 0xfa, 0x0a, 0xf8, 0xf5, 0x23,
  0xeb, 0xf2, 0x05, 0xcc, 0xd9, 0xde, 0xec, 0xe4, 0xee, 0xdc, 0x26, 0xda,
  0xfb, 0x1f, 0x06, 0xfd, 0x1e, 0x13, 0x03, 0x1d, 0xdc, 0xdf, 0x17, 0x1e,
  0x02, 0xee, 0xfd, 0x04, 0x0a, 0x19, 0x18, 0x1e, 0x1c, 0x1b, 0x03, 0xd6,
  0x19, 0xce, 0xeb, 0x13, 0xf0, 0x23, 0xf0, 0x16, 0xd7, 0xa0, 0x09, 0xf9,
  0xe2, 0xdc, 0x08, 0x0e, 0xf6, 0x1e, 0x11, 0xd5, 0x01, 0x13, 0xc3, 0x02,
  0x2a, 0x09, 0xec, 0xec, 0x0b, 0xd4, 0xbb, 0xdc, 0x16, 0x10, 0xe9, 0x0d,
  0xfe, 0xf6, 0x0e, 0xdb, 0xfa, 0xfa, 0xfb, 0x1b, 0xe4, 0xe5, 0x20, 0xca,
  0xf6, 0xdf, 0xfc, 0x21, 0xf7, 0x04, 0x28, 0xd5, 0x09, 0x18, 0x20, 0xe7,
  0xf4, 0x02, 0xd6, 0x1f, 0x2a, 0xfe, 0xe9, 0xcc, 0x17, 0xe5, 0xfa, 0xfd,
  0xf3, 0xe0, 0x04, 0x02, 0x08, 0xcf, 0x15, 0x1b, 0xf4, 0xd6, 0xf8, 0x26,
  0xed, 0xd3, 0x35, 0x27, 0xdf, 0xf8, 0x10, 0xed, 0x0a, 0xf4, 0x26, 0xf9,
  0xd7, 0xfb, 0x02, 0xe7, 0xd5, 0x2d, 0x0c, 0xeb, 0xde, 0xf6, 0x08, 0xe7,
  0x1e, 0x1c, 0x13, 0x04, 0xe7, 0x1f, 0xec, 0xe1, 0x1b, 0x09, 0x06, 0xed,
  0xf2, 0xf8, 0xdd, 0xfb, 0x12, 0x09, 0x09, 0x11, 0xf5, 0x02, 0xe0, 0x12,
  0x22, 0xef, 0x02, 0x25, 0xd0, 0x4e, 0xf6, 0xce, 0x41, 0xfc, 0xf0, 0x0f,
  0xe5, 0xe6, 0x19, 0xfe, 0xf2, 0xf5, 0x04, 0xe2, 0x0d, 0x28, 0x0a, 0xdc,
  0xe9, 0xdd, 0xe7, 0x23, 0xf6, 0x24, 0xe9, 0xde, 0x2a, 0x0a, 0x03, 0xe3,
  0xf0, 0x0e, 0xd9, 0xf0, 0x20, 0x08, 0xf4, 0x23, 0x02, 0x1a, 0x00, 0x07,
  0xe5, 0xeb, 0xa8, 0x05, 0xe8, 0xd3, 0xec, 0x29, 0xf5, 0xdb, 0x16, 0xf9,
  0x02, 0x02, 0x01, 0x0e, 0xdd, 0xfb, 0xfb, 0xe0, 0xe8, 0xdd, 0x29, 0xf6,
  0x09, 0xfc, 0x1c, 0x04, 0xff, 0xeb, 0xf7, 0x05, 0xf9, 0x06, 0xfe, 0x06,
  0xfd, 0xfe, 0x09, 0xf3, 0xfe, 0xd2, 0x04, 0x0e, 0xfe, 0xd7, 0xed, 0x18,
  0xee, 0xf5, 0x14, 0xe4, 0xe3, 0xd9, 0x10, 0x20, 0xf9, 0x09, 0x0d, 0x06,
  0xf7, 0xe5, 0xdf, 0x08, 0xf9, 0x1e, 0x25, 0xe7, 0x08, 0xf8, 0x01, 0x13,
  0x13, 0x12, 0x08, 0x1f, 0xf3, 0xe7, 0x33, 0x1c, 0xda, 0xeb, 0x23, 0xf7,
  0xfb, 0xf8, 0xe0, 0xeb, 0xee, 0xfe, 0x1b, 0xf2, 0xf0, 0xfb, 0xf9, 0xe6,
  0xf3, 0x0f, 0xfd, 0x09, 0x06, 0xf6, 0x14, 0x10, 0x01, 0xe6, 0xd2, 0x02,
  0xff, 0xfc, 0x0b, 0xed, 0xf6, 0xf1, 0x21, 0xf6, 0x32, 0x1c, 0xd9, 0x0a,
  0xdf, 0x01, 0x0f, 0xdf, 0xf8, 0xfe, 0xc4, 0xde, 0xeb, 0x09, 0x04, 0xfa,
  0xeb, 0x26, 0x19, 0x05, 0xea, 0x2b, 0xec, 0x06, 0xfb, 0xf8, 0x19, 0x0c,
  0x14, 0x12, 0xe5, 0x06, 0x06, 0xf8, 0xf0, 0x17, 0xfa, 0x12, 0x25, 0x09,
  0x06, 0x03, 0x06, 0x00, 0xe0, 0xec, 0xea, 0x16, 0xf3, 0xeb, 0xe6, 0xf4,
  0xe6, 0xfb, 0xe4, 0xe5, 0xe0, 0x06, 0xf6, 0xe0, 0x2b, 0x1e, 0xf6, 0xf8,
  0x02, 0x1a, 0xe8, 0xee, 0x0c, 0x07, 0xf2, 0xfa, 0xef, 0xfd, 0x09, 0x06,
  0x28, 0x19, 0x08, 0x2d, 0xfc, 0xa0, 0x10, 0x07, 0x14, 0x01, 0xe2, 0x1e,
  0x14, 0xa5, 0x1f, 0xf2, 0xcb, 0xfe, 0xee, 0x0e, 0x07, 0x19, 0x08, 0x00,
  0x07, 0xe3, 0xe9, 0xd9, 0xf6, 0x39, 0xe4, 0xe0, 0x31, 0x01, 0xf4, 0x0e,
  0xf5, 0x4c, 0xf6, 0x01, 0x14, 0xd1, 0xfb, 0x11, 0x09, 0xff, 0xe7, 0x24,
  0xf4, 0xe9, 0xfa, 0xeb, 0x11, 0xe6, 0xde, 0x2f, 0xe2, 0xf0, 0xf4, 0x25,
  0x1a, 0x18, 0xe5, 0xf7, 0xe0, 0x00, 0xe8, 0x1c, 0x14, 0xf8, 0xec, 0x0a,
  0xe4, 0xef, 0xf0, 0x0b, 0x15, 0x11, 0xdd, 0x2e, 0xac, 0xee, 0x0d, 0x30,
  0xff, 0xe3, 0x53, 0x08, 0xf3, 0x03, 0xd2, 0x3a, 0xef, 0x02, 0x18, 0xe9,
  0xfe, 0xda, 0xec, 0x1f, 0x22, 0x8b, 0xf4, 0x06, 0xcb, 0xda, 0x0a, 0x1a,
  0x06, 0xd5, 0x0c, 0x0e, 0xf4, 0xdf, 0x13, 0x45, 0xf5, 0xe9, 0x0b, 0xf6,
  0xe5, 0xd2, 0x25, 0xef, 0x01, 0x1a, 0x20, 0x02, 0xfd, 0xf9, 0xf0, 0x2d,
  0xef, 0xeb, 0x06, 0xdd, 0xfa, 0xf1, 0xeb, 0x14, 0x02, 0x24, 0x20, 0x03,
  0x03, 0xdd, 0xe5, 0x0f, 0xf7, 0x33, 0x2d, 0x07, 0xfa, 0xf4, 0xf6, 0x29,
  0x17, 0x09, 0x18, 0x09, 0x01, 0xfa, 0xdd, 0x32, 0xed, 0x03, 0xe5, 0x1c,
  0xf4, 0x01, 0xf2, 0xe7, 0x0c, 0xde, 0xfa, 0x13, 0xf8, 0x20, 0xdf, 0x20,
  0x0a, 0xe9, 0xfe, 0x14, 0xac, 0x1a, 0xfe, 0xf7, 0xf9, 0x1c, 0xfa, 0xd2,
  0xdb, 0x0a, 0xee, 0xf4, 0x20, 0x0f, 0x0f, 0xf1, 0x0b, 0x1f, 0xf0, 0xf7,
  0xee, 0xf7, 0x28, 0x04, 0xf8, 0xf2, 0xf0, 0x27, 0xf3, 0xf2, 0xc1, 0xec,
  0xe9, 0x03, 0xe6, 0xfb, 0xfa, 0x09, 0x12, 0xfc, 0xe5, 0x02, 0xe5, 0xf8,
  0x10, 0xed, 0x19, 0x11, 0xeb, 0x1b, 0xc1, 0xf9, 0x27, 0x01, 0x12, 0x01,
  0xff, 0xe3, 0xc8, 0x2d, 0xfd, 0x09, 0xfd, 0x12, 0x0b, 0x0b, 0x0c, 0xfa,
  0x1d, 0x0d, 0xec, 0xf9, 0x1a, 0xfb, 0x0e, 0x11, 0x09, 0x0a, 0x16, 0x0b,
  0xfa, 0xef, 0x07, 0xfe, 0x21, 0xf8, 0x1c, 0x13, 0xf4, 0x0b, 0x0b, 0xda,
  0x42, 0xf4, 0x14, 0xe6, 0xeb, 0x0b, 0x06, 0x08, 0xcb, 0xe0, 0x0d, 0xdd,
  0x09, 0xdc, 0x06, 0xe8, 0xcf, 0xbb, 0x00, 0xc4, 0x25, 0x12, 0x08, 0xee,
  0xe9, 0xfd, 0x1d, 0xbb, 0x00, 0x02, 0x08, 0x10, 0xe8, 0x20, 0x11, 0xe4,
  0x1b, 0x0e, 0x02, 0x09, 0xf6, 0x05, 0x19, 0xed, 0x2d, 0x16, 0x0a, 0x12,
  0x11, 0x1a, 0x19, 0xd3, 0x32, 0xe0, 0x01, 0x13, 0x0c, 0x1a, 0x22, 0xbe,
  0xf2, 0x03, 0xfd, 0x23, 0x08, 0x1d, 0xec, 0xbb, 0x27, 0x00, 0xe7, 0xed,
  0xf7, 0x5f, 0xe5, 0x08, 0x29, 0xe4, 0x0d, 0xc9, 0x14, 0x40, 0xd7, 0xd5,
  0x2f, 0xf1, 0x13, 0xf8, 0x0b, 0x25, 0x0d, 0xf0, 0xe6, 0xee, 0x14, 0x05,
  0xf9, 0xef, 0xc5, 0x10, 0xf0, 0xfb, 0xc6, 0x03, 0xf3, 0xe2, 0x2e, 0x1f,
  0xfa, 0xf5, 0xfa, 0xfa, 0xf0, 0xd3, 0x0e, 0x10, 0xf6, 0xe2, 0x29, 0xda,
  0xf9, 0x00, 0x07, 0xea, 0xd8, 0x07, 0x11, 0xeb, 0xfa, 0x34, 0xf9, 0x11,
  0xd0, 0x2d, 0x0b, 0xed, 0xe5, 0xde, 0x0a, 0x2e, 0xfb, 0xbf, 0x11, 0x05,
  0x16, 0xf3, 0x21, 0xfc, 0x01, 0xf2, 0xf0, 0x1e, 0x17, 0xf4, 0x01, 0x29,
  0xef, 0x33, 0x0c, 0x10, 0x0d, 0x02, 0x07, 0x07, 0x37, 0xfe, 0x36, 0x03,
  0x07, 0x0c, 0xef, 0x07, 0x17, 0x2a, 0xff, 0xfb, 0x0f, 0x06, 0x06, 0x0f,
  0xf6, 0x2f, 0xf1, 0x1f, 0x1a, 0x13, 0xe4, 0xfc, 0xf9, 0xdc, 0xef, 0x06,
  0xf9, 0x3c, 0xf8, 0xe6, 0xce, 0xf0, 0xe9, 0x2c, 0xfb, 0x14, 0xfb, 0xd6,
  0x39, 0x05, 0xe7, 0xfb, 0x2c, 0x21, 0x06, 0x05, 0x37, 0x1c, 0xcd, 0x0c,
  0x1f, 0x22, 0x1e, 0xd2, 0x0a, 0xe0, 0xe5, 0xec, 0x18, 0xee, 0xf3, 0xd2,
  0xe4, 0xd7, 0xd2, 0xf1, 0xf2, 0x09, 0xdd, 0xb9, 0x0e, 0xd7, 0xc3, 0x04,
  0xe0, 0xd7, 0xd6, 0xd0, 0xd2, 0xdd, 0xfd, 0xf2, 0xe5, 0x0d, 0x02, 0xd4,
  0x06, 0x21, 0xf6, 0xfb, 0xff, 0x08, 0x0b, 0xe3, 0xff, 0xf9, 0xf9, 0xeb,
  0x0f, 0x08, 0x27, 0xbc, 0xf9, 0x08, 0x01, 0x02, 0xfd, 0xfb, 0xd4, 0xce,
  0x19, 0xea, 0xf1, 0x06, 0xff, 0xf3, 0x22, 0xe7, 0x24, 0x06, 0xda, 0xff,
  0x0b, 0xec, 0xd8, 0xe8, 0x1b, 0xf6, 0x22, 0xce, 0xef, 0x26, 0xe6, 0xfc,
  0x08, 0x16, 0x28, 0xe8, 0x1a, 0x0d, 0xf0, 0x0e, 0xe6, 0x05, 0x27, 0x0c,
  0x15, 0x01, 0x1a, 0x13, 0x02, 0xf6, 0x2b, 0xf4, 0xf2, 0x12, 0xe0, 0xf0,
  0x00, 0xe0, 0x17, 0x0a, 0x06, 0xfa, 0xf0, 0xdf, 0xfa, 0x01, 0xf5, 0x32,
  0x0d, 0x09, 0xfa, 0xfa, 0xfc, 0xeb, 0xd3, 0xfc, 0x26, 0xef, 0x0a, 0x09,
  0xd3, 0xc8, 0x31, 0xef, 0x00, 0xf7, 0xfa, 0xf1, 0xf2, 0xf2, 0x0c, 0xf5,
  0x08, 0x1e, 0x04, 0x3b, 0xff, 0x01, 0xfc, 0xcd, 0xea, 0xe0, 0x0f, 0xd1,
  0x15, 0x2d, 0xda, 0x1b, 0xf5, 0xb1, 0x14, 0x11, 0xfc, 0x17, 0xde, 0xeb,
  0xf1, 0xd7, 0x17, 0xed, 0xdb, 0x02, 0x0a, 0x0a, 0x0d, 0xec, 0x27, 0x0f,
  0xfe, 0xf1, 0x1c, 0xf8, 0xf2, 0xf0, 0xff, 0x1c, 0x0e, 0xfc, 0x10, 0x06,
  0x07, 0x01, 0xf6, 0xe4, 0x12, 0x14, 0xd3, 0x00, 0x00, 0xed, 0xf3, 0xff,
  0x07, 0x12, 0x0d, 0xfa, 0xee, 0xd2, 0xf5, 0x00, 0xf4, 0x1a, 0xef, 0x0c,
  0xfe, 0x05, 0xfe, 0x2e, 0xee, 0xea, 0x1e, 0x02, 0xe4, 0xfd, 0x1a, 0xd6,
  0xda, 0xf2, 0x09, 0xee, 0x1c, 0x01, 0xed, 0xe4, 0x1c, 0x16, 0x00, 0x1d,
  0x1f, 0xf1, 0x22, 0x0c, 0xd6, 0x1c, 0xe1, 0x00, 0x0a, 0xec, 0x23, 0xf7,
  0xb4, 0x0a, 0x02, 0xec, 0xe5, 0xbd, 0xfe, 0x09, 0x0f, 0xd4, 0x33, 0xf6,
  0xcd, 0xbf, 0xd4, 0x0f, 0xec, 0x18, 0x1c, 0x10, 0x0f, 0xe3, 0xfa, 0x15,
  0xf0, 0x0d, 0xb2, 0x18, 0x11, 0x1c, 0xf8, 0x24, 0xe9, 0x14, 0x10, 0xdf,
  0x10, 0x0e, 0xf2, 0x12, 0xe5, 0xf3, 0x2c, 0x07, 0xf3, 0xf6, 0x00, 0xf8,
  0xe5, 0xf7, 0x03, 0x1d, 0x14, 0xf9, 0xec, 0xe1, 0xde, 0xe9, 0xc7, 0x10,
  0x0e, 0xf2, 0x19, 0xdf, 0xde, 0x07, 0x0a, 0xf7, 0xe3, 0xe6, 0x14, 0x0a,
  0xd5, 0xe2, 0x01, 0x05, 0xdf, 0xde, 0x02, 0xe9, 0x0a, 0xe9, 0x1d, 0xee,
  0xf8, 0xf5, 0x13, 0x12, 0x04, 0xff, 0xed, 0xf9, 0xef, 0x25, 0x24, 0xe9,
  0xf4, 0xf9, 0xe6, 0x28, 0x00, 0xf3, 0xf6, 0x24, 0xe4, 0xf1, 0x2b, 0xe3,
  0xc9, 0x06, 0x05, 0x1a, 0xe8, 0xe8, 0x01, 0xf8, 0xd2, 0xe8, 0x02, 0xee,
  0x01, 0x15, 0xf9, 0x04, 0xdf, 0xc3, 0xe5, 0xd4, 0x15, 0x0b, 0xd6, 0xda,
  0xe3, 0xe8, 0xec, 0xe7, 0x15, 0x05, 0xd1, 0x01, 0xe3, 0xda, 0xf1, 0x17,
  0xc2, 0x1a, 0x06, 0x11, 0xd5, 0xdd, 0x10, 0x1b, 0x25, 0x20, 0xf0, 0x08,
  0xe0, 0x1a, 0xfa, 0x16, 0x03, 0x1c, 0xfe, 0x3c, 0x11, 0x12, 0x04, 0xfc,
  0x19, 0x2b, 0xf0, 0x1a, 0xdc, 0xc6, 0x08, 0xf9, 0xf7, 0x00, 0xe3, 0xfd,
  0x20, 0x2a, 0x24, 0xba, 0xf0, 0xca, 0xf5, 0x00, 0x09, 0xe6, 0x0e, 0xde,
  0xfe, 0xd7, 0xf4, 0x14, 0xe8, 0x14, 0x37, 0xff, 0xec, 0xf7, 0x01, 0xdc,
  0xe5, 0x04, 0xfe, 0x0d, 0x09, 0xf8, 0xec, 0xe8, 0x12, 0xde, 0xd6, 0x05,
  0xe9, 0xee, 0xfc, 0xf3, 0x29, 0x02, 0xed, 0x24, 0xf6, 0x0b, 0x46, 0x09,
  0x1f, 0x0d, 0x2a, 0xb4, 0x0c, 0xfe, 0xe6, 0xd3, 0xf2, 0x1b, 0xf2, 0xd6,
  0x06, 0x04, 0x23, 0x0c, 0xde, 0x08, 0xfb, 0x00, 0x02, 0x03, 0x04, 0xd0,
  0xff, 0xeb, 0xef, 0x10, 0x0b, 0x17, 0xf0, 0xff, 0x08, 0x13, 0xe9, 0x25,
  0xdc, 0xfd, 0x28, 0x0e, 0xee, 0x05, 0xff, 0x0c, 0xe6, 0xf4, 0x0d, 0x1e,
  0x15, 0x02, 0x00, 0x02, 0xe5, 0x01, 0xdc, 0x0b, 0xfb, 0x18, 0xf6, 0x19,
  0x11, 0xfe, 0xcd, 0xdc, 0x06, 0xf0, 0xf7, 0x3f, 0x13, 0xff, 0x16, 0x02,
  0xed, 0xd6, 0x12, 0x1f, 0x13, 0xf1, 0xd6, 0xf7, 0xb8, 0xd3, 0xf1, 0xf0,
  0x27, 0xe8, 0x0a, 0x0b, 0x0e, 0xe1, 0x10, 0xff, 0x02, 0xf2, 0xf0, 0x29,
  0x01, 0xf3, 0x03, 0xd6, 0x23, 0xff, 0xda, 0xd3, 0xbb, 0x0f, 0xd9, 0xf9,
  0x08, 0xfe, 0xf7, 0xe6, 0xef, 0xc6, 0xb3, 0xe7, 0x02, 0x00, 0x00, 0x10,
  0xed, 0xf9, 0x2a, 0xd7, 0x19, 0x02, 0xf6, 0xe9, 0xf8, 0xf1, 0x0f, 0xd4,
  0xe1, 0xf6, 0xf8, 0x08, 0xfa, 0xe1, 0x13, 0xea, 0x26, 0xfd, 0x03, 0xf9,
  0xfa, 0x00, 0x0d, 0xf8, 0xdd, 0x08, 0x06, 0xf1, 0xe7, 0x25, 0xf6, 0xf0,
  0xf8, 0xd6, 0x49, 0xd6, 0xe8, 0x15, 0x0a, 0x03, 0x1e, 0xd5, 0x23, 0x0d,
  0x21, 0x20, 0x13, 0x26, 0x15, 0xf2, 0xe2, 0x18, 0x16, 0x1a, 0x05, 0x00,
  0x21, 0x21, 0x06, 0xf0, 0x12, 0x33, 0xf7, 0xe8, 0x2b, 0x19, 0x08, 0xb4,
  0x12, 0x04, 0x2e, 0x02, 0x12, 0x00, 0xe5, 0x38, 0x10, 0xf5, 0xe8, 0x0e,
  0xef, 0x05, 0xdb, 0x20, 0xde, 0xfd, 0xe5, 0xf7, 0xfe, 0xe6, 0xd2, 0x1f,
  0x0d, 0x0b, 0xd7, 0x07, 0x10, 0xec, 0xe8, 0x03, 0x0b, 0xf8, 0x3e, 0xee,
  0xee, 0xdf, 0xee, 0xf4, 0x0e, 0x21, 0xf9, 0xf1, 0xfb, 0x23, 0x12, 0x02,
  0xf7, 0x0c, 0xfb, 0x00, 0xeb, 0xff, 0x05, 0x00, 0xf0, 0x16, 0xfb, 0x06,
  0xed, 0xee, 0x0b, 0x0d, 0xe3, 0x06, 0x22, 0xd4, 0x19, 0x13, 0x0a, 0xcf,
  0x42, 0xd4, 0xdb, 0xfe, 0xf5, 0xca, 0x19, 0xe9, 0x0d, 0x10, 0xfa, 0x0d,
  0x0a, 0xe9, 0xe1, 0xfd, 0x1b, 0x0b, 0xf8, 0x21, 0xf8, 0xe4, 0x07, 0x15,
  0x10, 0xf1, 0xfa, 0x27, 0xca, 0xe4, 0x0f, 0x02, 0x00, 0x08, 0xf6, 0x37,
  0x02, 0xe2, 0x06, 0x02, 0xe4, 0x08, 0x05, 0xe5, 0xe0, 0xf4, 0xfe, 0x1d,
  0xce, 0xf1, 0xf4, 0xd6, 0x1b, 0xf0, 0xd0, 0x1d, 0xe9, 0xcf, 0x1e, 0xfd,
  0x22, 0xff, 0x24, 0x0e, 0x03, 0xd5, 0x36, 0x0c, 0xe9, 0xe2, 0x0b, 0xf3,
  0xd7, 0xf0, 0xe9, 0x1f, 0xd2, 0xc6, 0xfb, 0xfc, 0xc4, 0xed, 0xed, 0x1f,
  0xf3, 0xfc, 0x15, 0xec, 0xec, 0x14, 0x02, 0x16, 0x14, 0x01, 0xbf, 0x17,
  0x0a, 0x03, 0xf0, 0x0d, 0xf7, 0x02, 0xe8, 0x15, 0xfa, 0x03, 0xf6, 0x0a,
  0xf5, 0x09, 0xfa, 0x17, 0x1c, 0x1f, 0xfd, 0xf2, 0xeb, 0xec, 0xff, 0x1c,
  0x12, 0x11, 0xe7, 0xeb, 0xf8, 0xff, 0xfe, 0xe1, 0xf4, 0xd1, 0xfe, 0x06,
  0x0e, 0xf6, 0xdb, 0x08, 0x1c, 0xff, 0x08, 0x05, 0xca, 0xef, 0x16, 0xfa,
  0xd4, 0x01, 0xd0, 0x1d, 0xf5, 0xd7, 0x1e, 0x08, 0xfc, 0xd1, 0x16, 0xdd,
  0xe5, 0x16, 0xe6, 0x0c, 0x1d, 0xef, 0xd3, 0xdd, 0x0a, 0x0b, 0x05, 0xd5,
  0xde, 0xfb, 0x0e, 0xe9, 0xf3, 0xf1, 0xc1, 0x0f, 0xf0, 0xf1, 0x03, 0x04,
  0xf9, 0xf0, 0xd0, 0xe7, 0x1a, 0xd8, 0xf9, 0xe6, 0xfc, 0x00, 0xeb, 0xf8,
  0x12, 0xf0, 0xe1, 0xf3, 0x20, 0x1d, 0xfa, 0x02, 0x17, 0x05, 0xeb, 0x2b,
  0xea, 0x1d, 0x1f, 0xfc, 0xeb, 0x24, 0x0e, 0xe4, 0xe3, 0xe8, 0xf9, 0x16,
  0xee, 0xf2, 0xc7, 0xdd, 0xe7, 0xee, 0xf8, 0x14, 0xef, 0xf4, 0x1c, 0xcd,
  0x0e, 0xf7, 0x07, 0x2d, 0xfd, 0xf5, 0xef, 0xea, 0x1f, 0xe4, 0x08, 0x12,
  0xe1, 0x34, 0x0d, 0x15, 0x12, 0xe5, 0x02, 0xeb, 0xf4, 0x13, 0x03, 0x15,
  0xca, 0x03, 0x30, 0x0a, 0xe9, 0xf0, 0x11, 0xf5, 0x00, 0x0b, 0xd5, 0xf9,
  0x13, 0xd5, 0xee, 0x1e, 0x01, 0xf2, 0xfa, 0xdb, 0x0b, 0x08, 0xc2, 0xff,
  0x0c, 0xeb, 0xad, 0xd1, 0x08, 0xf7, 0xed, 0x1d, 0xde, 0xd6, 0x39, 0xd0,
  0xec, 0xed, 0x01, 0x02, 0xe3, 0x06, 0x1f, 0xf8, 0x1d, 0x25, 0xdf, 0x0b,
  0xfe, 0xdf, 0xb9, 0x2e, 0xfe, 0x0b, 0xf5, 0xe3, 0x13, 0xf9, 0xf2, 0x1f,
  0xf4, 0xe8, 0x17, 0x1a, 0x13, 0xfa, 0xf8, 0x22, 0xe7, 0xe3, 0xf8, 0xfd,
  0xf2, 0xfa, 0xe3, 0x04, 0x06, 0x21, 0x0b, 0xdd, 0x0a, 0xf9, 0xd8, 0xdc,
  0x03, 0x15, 0xec, 0xe4, 0xfe, 0x19, 0x1b, 0xf3, 0xff, 0xf6, 0xdc, 0xc6,
  0xf4, 0x03, 0x1b, 0xe2, 0xf9, 0xf4, 0x21, 0xf0, 0x21, 0xf2, 0xf1, 0xeb,
  0x09, 0xe6, 0x0c, 0xf5, 0x16, 0xf6, 0x30, 0xf3, 0xfa, 0x1f, 0xff, 0xd5,
  0xe8, 0xee, 0x0e, 0x03, 0xf5, 0xfa, 0xe2, 0x26, 0xe8, 0xe5, 0x12, 0x23,
  0xea, 0x0b, 0x35, 0x11, 0x04, 0xd4, 0x0c, 0xfb, 0x0e, 0x10, 0x0f, 0x04,
  0x08, 0x10, 0x1f, 0xdf, 0x04, 0x19, 0x19, 0x01, 0x11, 0x29, 0xef, 0x00,
  0xe9, 0x0f, 0xf9, 0xe0, 0xe9, 0xee, 0xe3, 0x09, 0x21, 0xd6, 0xf3, 0x06,
  0xf5, 0x01, 0xc2, 0x03, 0x13, 0xf2, 0xff, 0x17, 0x02, 0xf5, 0xfa, 0x01,
  0xfa, 0xf0, 0xe8, 0x16, 0xf9, 0xee, 0x27, 0xd2, 0xb5, 0xf8, 0x17, 0x0e,
  0xea, 0xf8, 0x08, 0xf2, 0xed, 0xf3, 0x0a, 0x18, 0x22, 0x0e, 0xde, 0x28,
  0xf6, 0xa1, 0x27, 0xda, 0x07, 0x17, 0x06, 0xe9, 0xf7, 0xd0, 0xf2, 0x0a,
  0xda, 0xd0, 0x1d, 0x06, 0xef, 0xcb, 0xdb, 0x3b, 0xfd, 0x03, 0x13, 0x08,
  0xf1, 0xe9, 0xe6, 0xde, 0x11, 0x19, 0x10, 0xf1, 0x07, 0x01, 0x46, 0x1f,
  0xe8, 0xfe, 0x02, 0xd9, 0x05, 0xf2, 0xed, 0xff, 0x09, 0x0c, 0x07, 0x01,
  0xef, 0xf1, 0xe2, 0x0a, 0xf5, 0x06, 0x37, 0xf9, 0xe9, 0xdb, 0xd9, 0x18,
  0xe8, 0x15, 0xe1, 0xf7, 0xda, 0xf7, 0x01, 0xf2, 0xe5, 0x0f, 0xd4, 0xf3,
  0xf6, 0xc4, 0x02, 0xfc, 0xb4, 0xf1, 0x1b, 0xe7, 0x1b, 0xf2, 0x11, 0x24,
  0xd8, 0x03, 0x1c, 0x0c, 0xd6, 0x07, 0xdd, 0xee, 0xeb, 0x0d, 0x4d, 0xf4,
  0xd9, 0xf1, 0x22, 0x15, 0x1b, 0xef, 0x3f, 0xe8, 0xe5, 0x01, 0x0f, 0xda,
  0x10, 0xef, 0xfa, 0x11, 0xd8, 0xe4, 0xf1, 0x04, 0xef, 0xed, 0xfb, 0x05,
  0xf4, 0xde, 0xe2, 0xfb, 0x01, 0x01, 0xf0, 0xfc, 0x05, 0xe6, 0x28, 0xe0,
  0x00, 0x0f, 0xfb, 0xf0, 0xed, 0x09, 0x17, 0xdd, 0x01, 0xd9, 0xed, 0xed,
  0x0f, 0xee, 0x00, 0xf1, 0x1f, 0xf1, 0xdd, 0x00, 0xd0, 0x2c, 0x10, 0xea,
  0xd4, 0xf1, 0x02, 0xf4, 0x1f, 0xbb, 0x17, 0x17, 0x02, 0xe3, 0x0e, 0x0c,
  0x2f, 0x07, 0xf4, 0x00, 0xf9, 0xe4, 0x0d, 0xfa, 0x26, 0x38, 0xe3, 0x2c,
  0xec, 0x0e, 0x10, 0x17, 0xef, 0x7d, 0x03, 0xee, 0xff, 0x1c, 0x1a, 0xe6,
  0xcb, 0xbf, 0x16, 0x04, 0x2f, 0x05, 0x21, 0xfe, 0x07, 0xe2, 0xeb, 0x02,
  0x0e, 0x11, 0x07, 0x08, 0xe6, 0xf5, 0xf7, 0x11, 0x10, 0x12, 0x1d, 0x01,
  0xca, 0xef, 0xff, 0xf6, 0x25, 0x26, 0xfe, 0xf7, 0xcb, 0xeb, 0x06, 0xea,
  0xd3, 0xfd, 0x15, 0xea, 0xe4, 0x40, 0x29, 0x23, 0x2d, 0x0a, 0xec, 0x07,
  0xd9, 0x30, 0x18, 0xe6, 0x10, 0xda, 0x0b, 0x08, 0xf9, 0xf8, 0xdd, 0x21,
  0x18, 0xf5, 0x1b, 0xd3, 0x1c, 0x12, 0xf5, 0x04, 0xef, 0x03, 0xe6, 0xd0,
  0xd7, 0xe8, 0x0e, 0xf7, 0x03, 0x1f, 0xf2, 0xcc, 0x02, 0xdb, 0xe8, 0xe5,
  0x0f, 0x04, 0x3d, 0x01, 0xf5, 0xe3, 0x23, 0xfd, 0x10, 0xec, 0xfa, 0xf1,
  0xf2, 0xef, 0x07, 0x1a, 0xde, 0xf2, 0x2f, 0xf9, 0xde, 0xe9, 0x18, 0xe9,
  0xd7, 0x09, 0xbc, 0x02, 0xf0, 0xfe, 0xe6, 0xb9, 0x0b, 0xf6, 0xe6, 0x06,
  0x0c, 0x07, 0x0f, 0xdf, 0x11, 0x0f, 0x10, 0x00, 0xf6, 0x0a, 0x0f, 0x04,
  0x25, 0x3b, 0x0c, 0xe7, 0x12, 0xf6, 0xec, 0x09, 0x2b, 0x3a, 0x13, 0x1b,
  0xe4, 0xf4, 0x28, 0x18, 0x13, 0x1c, 0x13, 0xdd, 0xc6, 0x05, 0xe2, 0xec,
  0x0c, 0xf7, 0xdf, 0x14, 0xfa, 0x07, 0x08, 0x1f, 0x14, 0x07, 0xfc, 0xf2,
  0xd2, 0xea, 0xe9, 0x18, 0x12, 0x01, 0x3d, 0x26, 0xdd, 0x06, 0xf9, 0xf6,
  0xeb, 0xdc, 0xe3, 0x18, 0xfe, 0x21, 0x18, 0xd8, 0xe2, 0x20, 0xf1, 0xf6,
  0xd6, 0x0b, 0xfe, 0xdd, 0xfd, 0xfd, 0xff, 0x03, 0xea, 0x32, 0x19, 0xe5,
  0x10, 0xf6, 0xe0, 0x00, 0xe1, 0xff, 0x20, 0x25, 0xf8, 0xe6, 0x07, 0x0d,
  0xd6, 0xf0, 0xf1, 0x1e, 0xe1, 0x17, 0x0e, 0x08, 0x06, 0xcd, 0xfc, 0x16,
  0xf1, 0x12, 0xf1, 0xf9, 0xd7, 0x09, 0xed, 0xf2, 0xc5, 0x0e, 0x0a, 0x00,
  0xf8, 0xea, 0xe7, 0x26, 0x38, 0xf6, 0x0f, 0xf3, 0xea, 0xf2, 0xfb, 0x06,
  0xfc, 0x04, 0xf4, 0xd7, 0xdb, 0xf6, 0xea, 0x03, 0x18, 0x1d, 0x12, 0x06,
  0xde, 0xeb, 0xea, 0x0b, 0xde, 0xf7, 0x28, 0xef, 0xd6, 0xfe, 0xed, 0xe8,
  0x0b, 0xe9, 0xfd, 0x0c, 0xe3, 0x04, 0xf9, 0x21, 0x05, 0x00, 0xff, 0x21,
  0xef, 0x28, 0x0a, 0x0e, 0x08, 0xfb, 0xd0, 0xe5, 0xec, 0x30, 0x0d, 0x1e,
  0xf2, 0x04, 0x11, 0xf2, 0xec, 0x08, 0x10, 0x00, 0x2b, 0x15, 0xec, 0xf1,
  0xdb, 0x1d, 0xe9, 0xfb, 0xe0, 0x01, 0xf2, 0xf5, 0xf7, 0x0f, 0xca, 0xf8,
  0xf3, 0xfe, 0xf2, 0xee, 0xfa, 0xfd, 0x2f, 0xfa, 0xd1, 0xf6, 0xf9, 0x08,
  0xf5, 0xe1, 0xed, 0x08, 0xea, 0x12, 0xec, 0x12, 0x0f, 0xea, 0x1f, 0xf6,
  0xe7, 0x1d, 0xf1, 0x0b, 0x06, 0x01, 0x10, 0xfa, 0xf2, 0xf2, 0xef, 0x2b,
  0x0b, 0xed, 0xea, 0xfa, 0xe8, 0x0c, 0x16, 0xdb, 0xff, 0x03, 0xf2, 0x16,
  0xfa, 0xe1, 0x06, 0x03, 0x29, 0x24, 0x0b, 0x13, 0x22, 0x16, 0xfd, 0x0a,
  0x04, 0x24, 0x16, 0xe9, 0xf8, 0xff, 0xf3, 0x06, 0x2f, 0x0b, 0xdb, 0xe4,
  0x04, 0x1b, 0x12, 0xe8, 0xcb, 0xf8, 0xfd, 0xcf, 0x1c, 0x34, 0x0c, 0xec,
  0xf3, 0xfe, 0x1d, 0xe9, 0xec, 0x1e, 0x0d, 0xfe, 0x12, 0x1a, 0xda, 0xf4,
  0xf8, 0x06, 0x06, 0xdf, 0x14, 0x12, 0xfb, 0xf6, 0xda, 0x1f, 0xfc, 0xf9,
  0xe9, 0xda, 0x18, 0xd4, 0x0b, 0x30, 0xf8, 0xd4, 0x01, 0x4e, 0xf4, 0xfb,
  0x19, 0xe4, 0xe2, 0x18, 0x00, 0x0e, 0xe2, 0xfe, 0x27, 0xe3, 0xea, 0xb7,
  0xde, 0xfd, 0xe6, 0x14, 0xcc, 0xde, 0x1e, 0x10, 0xf6, 0xbe, 0x09, 0x18,
  0xd9, 0xf8, 0x19, 0xff, 0xe3, 0x46, 0xfe, 0x01, 0xf6, 0x03, 0x12, 0xf8,
  0x12, 0xda, 0x0b, 0xee, 0xe2, 0xdd, 0xdd, 0xe5, 0x37, 0xd3, 0x40, 0xfd,
  0xe3, 0xdf, 0x24, 0xe2, 0x0b, 0xfe, 0x27, 0xef, 0xea, 0xd6, 0x16, 0xe2,
  0x1b, 0x04, 0xfb, 0x08, 0xf8, 0xfe, 0x1e, 0xe6, 0xd3, 0xce, 0x26, 0x17,
  0xea, 0xfa, 0xf9, 0xd1, 0x09, 0xb5, 0x18, 0x19, 0xb8, 0xf9, 0x22, 0xef,
  0x1d, 0x18, 0xfb, 0x37, 0xc7, 0x08, 0x3f, 0x09, 0x22, 0xf2, 0xf7, 0x15,
  0x0f, 0x1e, 0xf4, 0x05, 0x0a, 0xda, 0x0c, 0xe3, 0xec, 0x45, 0xf9, 0x1a,
  0x03, 0xf1, 0xf0, 0x14, 0xf3, 0x0a, 0x04, 0x1e, 0x02, 0xdc, 0xff, 0x0b,
  0xfd, 0x02, 0xdb, 0x12, 0xd7, 0x10, 0xf6, 0xfc, 0x0d, 0x15, 0xdb, 0xfc,
  0x13, 0xd5, 0xe2, 0xf4, 0x1f, 0xf2, 0x04, 0xf0, 0xfc, 0x07, 0xeb, 0x00,
  0xed, 0x1f, 0xfe, 0x17, 0xdd, 0x0d, 0xef, 0x01, 0xf8, 0x1e, 0x0a, 0x29,
  0xfc, 0xca, 0xdc, 0xde, 0xd0, 0x15, 0x00, 0xf5, 0x0d, 0x37, 0x1d, 0xf8,
  0x1e, 0xee, 0x01, 0x00, 0xf3, 0xe8, 0x19, 0x21, 0x20, 0x1b, 0xe7, 0x0a,
  0xdd, 0x28, 0x16, 0xe3, 0xf8, 0xdb, 0xf6, 0xf7, 0xef, 0x19, 0x14, 0xcd,
  0x0b, 0x17, 0x08, 0xe7, 0x0b, 0x04, 0x1e, 0xfb, 0xf0, 0xe7, 0xd2, 0x14,
  0x1f, 0xf5, 0x0c, 0xfa, 0xf8, 0xe1, 0xc2, 0x39, 0x0c, 0x04, 0x25, 0x08,
  0x01, 0xeb, 0xdb, 0x17, 0x36, 0x0e, 0x0a, 0xe1, 0xf9, 0xfa, 0xd1, 0x0f,
  0xe5, 0x11, 0xfa, 0xdf, 0xf5, 0xf7, 0xbd, 0x17, 0x2c, 0xd4, 0xdb, 0x15,
  0xe1, 0x29, 0x04, 0x01, 0x1d, 0xf6, 0xe5, 0x1a, 0xcc, 0xff, 0xff, 0x0b,
  0x3b, 0x2f, 0x03, 0xf9, 0xe8, 0xdd, 0xef, 0x0e, 0xf6, 0x04, 0xf1, 0xc7,
  0x02, 0x0a, 0xd8, 0xd8, 0xfa, 0xf8, 0xcb, 0xdb, 0xeb, 0x32, 0x13, 0x0b,
  0x25, 0x22, 0xf3, 0x2d, 0xf6, 0xe4, 0xfb, 0x21, 0xfc, 0x0a, 0x03, 0x0a,
  0xd5, 0xf0, 0xf0, 0x16, 0xfe, 0x21, 0xfc, 0xdd, 0xba, 0xe1, 0x02, 0x01,
  0x01, 0x00, 0x0d, 0xe5, 0xde, 0xf1, 0x19, 0x05, 0x81, 0x14, 0xef, 0x12,
  0xf9, 0x00, 0x13, 0xdc, 0x0b, 0x20, 0xc0, 0x0f, 0x02, 0x14, 0xda, 0xfc,
  0xde, 0xf4, 0xd0, 0xe4, 0x19, 0x01, 0xcc, 0xeb, 0xf1, 0xda, 0xe6, 0xbe,
  0x2e, 0xe0, 0xc2, 0xf5, 0x21, 0x18, 0xe6, 0xef, 0x04, 0xcd, 0xc3, 0xfc,
  0xeb, 0x13, 0x21, 0x10, 0xd1, 0xf7, 0xe2, 0xbe, 0x2a, 0x0a, 0xfe, 0x41,
  0xe5, 0xfa, 0x0c, 0xdc, 0xdc, 0x16, 0xfb, 0x02, 0xce, 0x0a, 0x28, 0xd5,
  0xb8, 0x08, 0xf7, 0xf8, 0xe0, 0x07, 0xff, 0xf5, 0xdf, 0xd9, 0xff, 0xdd,
  0x17, 0x0c, 0xf2, 0x03, 0xda, 0xe9, 0x05, 0xdc, 0x14, 0x07, 0xd6, 0x00,
  0xf9, 0xbb, 0x17, 0x1a, 0xac, 0xef, 0xdd, 0x02, 0xf6, 0xe3, 0x01, 0x22,
  0xe8, 0x10, 0x01, 0x15, 0xf0, 0x03, 0xe2, 0x05, 0x03, 0xf4, 0xff, 0x13,
  0x0b, 0x1d, 0xd3, 0xf2, 0xf3, 0x1b, 0xdd, 0xfc, 0xf1, 0xf8, 0x02, 0x0a,
  0xcc, 0x0b, 0xd3, 0xd3, 0xf3, 0x06, 0x00, 0x1f, 0xef, 0x0c, 0x2f, 0x05,
  0xe0, 0xff, 0x1e, 0xe9, 0xee, 0xf6, 0xfc, 0x14, 0x13, 0x0a, 0x0f, 0x1b,
  0xf8, 0xf7, 0xc6, 0xfa, 0x0b, 0xf5, 0xfc, 0xf3, 0xd5, 0xfe, 0xf8, 0xf4,
  0xdb, 0xde, 0xfa, 0x0a, 0xc2, 0xf9, 0x09, 0x0f, 0xc7, 0x1a, 0xce, 0x06,
  0x1a, 0xf9, 0xe3, 0x09, 0xac, 0xce, 0x0d, 0xf8, 0xff, 0x0c, 0x12, 0x14,
  0xee, 0xec, 0xf3, 0xc2, 0xca, 0x24, 0x0a, 0x14, 0x22, 0xee, 0x15, 0x02,
  0xe8, 0x0f, 0xd3, 0x07, 0x0a, 0xcc, 0xf6, 0x0b, 0xd0, 0xea, 0xf5, 0x21,
  0x0f, 0xe7, 0x27, 0xf1, 0x11, 0xf0, 0xef, 0x04, 0x2f, 0x11, 0x3d, 0x04,
  0x0d, 0xf4, 0xef, 0x18, 0xfd, 0x04, 0x0c, 0xff, 0xf8, 0xe6, 0xeb, 0x05,
  0xfc, 0x21, 0xb9, 0x02, 0x01, 0xfc, 0xe4, 0x04, 0xe6, 0x2b, 0xbf, 0xdc,
  0xf2, 0xf2, 0xdc, 0xfe, 0x26, 0xb3, 0x07, 0x31, 0xc7, 0x00, 0x02, 0x02,
  0x14, 0x03, 0x1c, 0x0f, 0x00, 0x17, 0xbf, 0xf9, 0x36, 0x1d, 0xf1, 0xeb,
  0xd5, 0x04, 0x0c, 0x0a, 0xea, 0x2d, 0xdb, 0xc2, 0x03, 0xff, 0x10, 0x16,
  0xba, 0x17, 0xce, 0xdc, 0xfc, 0x0c, 0xce, 0xf5, 0xef, 0xee, 0x27, 0xf5,
  0x06, 0xe7, 0xf5, 0x1f, 0x02, 0xfc, 0xe8, 0x04, 0x07, 0xf3, 0xe6, 0xf6,
  0x19, 0xf0, 0x2a, 0x02, 0x00, 0xfc, 0xd4, 0x37, 0x02, 0x15, 0x23, 0x01,
  0xf3, 0x0d, 0xd1, 0xed, 0x23, 0x00, 0xf2, 0xe5, 0x02, 0xeb, 0xda, 0x2d,
  0x1a, 0x04, 0xe9, 0x12, 0xe6, 0xff, 0xee, 0x0d, 0x12, 0x09, 0x07, 0x10,
  0x03, 0x15, 0xf9, 0xf4, 0x18, 0xf5, 0xf4, 0x02, 0xed, 0xef, 0x05, 0xea,
  0x27, 0xfc, 0x16, 0xf8, 0xe6, 0xeb, 0xdf, 0xdf, 0x23, 0xf8, 0x05, 0xc2,
  0xf6, 0xdd, 0x17, 0xd4, 0xe9, 0xe4, 0x0b, 0xf0, 0xf5, 0xdf, 0xf1, 0xe2,
  0x1d, 0xfa, 0xf4, 0xe8, 0x1e, 0xfa, 0xd9, 0x10, 0xe2, 0x27, 0xfe, 0xe2,
  0xf3, 0x3c, 0xe9, 0xee, 0xf3, 0x1b, 0x00, 0xfa, 0x12, 0xce, 0xef, 0xf6,
  0xef, 0xff, 0x01, 0x25, 0x29, 0x20, 0x31, 0x06, 0xe0, 0xd3, 0x0a, 0xf3,
  0xa3, 0xf2, 0xfb, 0xe9, 0xe5, 0xcd, 0x08, 0xf0, 0xc0, 0xf8, 0xda, 0xfb,
  0xdc, 0x00, 0xd4, 0xe3, 0x15, 0xe7, 0x27, 0xde, 0xb7, 0x3b, 0x0a, 0xd9,
  0x11, 0xf6, 0x04, 0x0b, 0xdf, 0xf5, 0xdf, 0x0e, 0xf7, 0xfe, 0xe8, 0x22,
  0xff, 0x18, 0xf5, 0xf9, 0x16, 0x38, 0xf7, 0x28, 0xf5, 0xfb, 0x07, 0xe5,
  0xfa, 0xf7, 0x0a, 0xed, 0xf6, 0x17, 0x0d, 0x1b, 0xef, 0xf6, 0x14, 0x29,
  0xf7, 0x26, 0x11, 0xff, 0xcc, 0xf3, 0xee, 0x10, 0xf6, 0xc9, 0x16, 0xe1,
  0xe2, 0xee, 0xd7, 0xea, 0xff, 0x28, 0x11, 0x0f, 0x20, 0x1d, 0xec, 0x27,
  0xf2, 0x21, 0x10, 0x11, 0x11, 0xf1, 0x0b, 0xe8, 0xce, 0xe7, 0xca, 0x21,
  0xd6, 0xf6, 0x14, 0xe3, 0xf5, 0xde, 0xf1, 0x0a, 0xc3, 0x0d, 0xfd, 0xe1,
  0xf3, 0xe9, 0xe0, 0xfc, 0xe0, 0xef, 0xeb, 0xe5, 0x04, 0xc9, 0x2a, 0xde,
  0xeb, 0xdd, 0x09, 0xd9, 0xf6, 0xe4, 0x09, 0xf2, 0xda, 0xee, 0xe3, 0x05,
  0x06, 0x1c, 0x01, 0x0a, 0x09, 0xf7, 0xfd, 0xf4, 0xfb, 0xfe, 0x30, 0xfc,
  0x01, 0x11, 0x08, 0xe6, 0xd3, 0xf2, 0xce, 0x05, 0xd7, 0x06, 0xee, 0xf8,
  0xfb, 0x36, 0xfb, 0x14, 0xe3, 0x04, 0x33, 0x08, 0x25, 0x22, 0x03, 0x25,
  0x24, 0x25, 0x2f, 0x13, 0x17, 0x2b, 0x15, 0xdb, 0x05, 0xee, 0xfe, 0xfd,
  0xf5, 0x12, 0xe4, 0xda, 0x04, 0x09, 0x1a, 0xf5, 0xfb, 0x1f, 0xe8, 0xe7,
  0x02, 0xe9, 0x07, 0xf8, 0xff, 0xeb, 0xfa, 0x03, 0x18, 0xfd, 0xc9, 0x15,
  0xf5, 0x0a, 0xfa, 0x00, 0xdd, 0x1b, 0xf3, 0x22, 0x02, 0xe6, 0xf6, 0xf3,
  0x23, 0xf9, 0x03, 0x0a, 0x01, 0xf6, 0xfd, 0x0f, 0x29, 0x21, 0x03, 0x06,
  0xef, 0x28, 0xec, 0x03, 0xf5, 0xfe, 0x05, 0x0c, 0x17, 0xbd, 0xed, 0xe8,
  0x8c, 0xdd, 0xfc, 0x21, 0xd3, 0x06, 0xeb, 0xca, 0x3b, 0x23, 0xe3, 0x18,
  0xd4, 0x1e, 0x1f, 0xcb, 0x2d, 0x10, 0xe1, 0xe7, 0x14, 0x08, 0xd9, 0xe4,
  0x1e, 0xec, 0xc5, 0xd0, 0x08, 0x40, 0xfa, 0xec, 0x20, 0xf5, 0xff, 0xee,
  0xdb, 0x11, 0x11, 0xd5, 0xf1, 0xd8, 0xfc, 0xf9, 0x00, 0xeb, 0x1c, 0x05,
  0xf9, 0xcf, 0xf3, 0xfe, 0xf7, 0x04, 0xfc, 0xe8, 0x01, 0xee, 0xe0, 0xfb,
  0x08, 0xef, 0x00, 0xf4, 0xf4, 0xdd, 0x1d, 0xf4, 0xd5, 0xf3, 0x1c, 0xe7,
  0xe3, 0xe0, 0x20, 0xd5, 0x07, 0xf0, 0xae, 0xea, 0x05, 0x26, 0x53, 0xd4,
  0x02, 0x27, 0x04, 0xde, 0x0b, 0x26, 0x12, 0xf4, 0x02, 0xe6, 0x1f, 0x03,
  0xfb, 0x0d, 0x13, 0xf1, 0x22, 0xba, 0x2b, 0x2f, 0xf6, 0xda, 0x11, 0x21,
  0x1b, 0x07, 0xfe, 0x1b, 0xf4, 0x1e, 0x16, 0xc5, 0xfb, 0xf3, 0xe5, 0xf8,
  0xfd, 0x17, 0xf7, 0xeb, 0xf0, 0x17, 0xe3, 0x11, 0x21, 0xef, 0xfd, 0x02,
  0x16, 0x0e, 0xe7, 0x0c, 0x13, 0x24, 0xf3, 0x29, 0xff, 0xf0, 0xef, 0xf6,
  0xe5, 0xe5, 0xf6, 0x16, 0xf4, 0x2c, 0xfe, 0xf0, 0xe7, 0xda, 0xeb, 0x30,
  0x0d, 0x0d, 0x08, 0xee, 0x12, 0x1b, 0xeb, 0x21, 0x13, 0x00, 0xed, 0xe0,
  0xfb, 0xe7, 0x0b, 0x02, 0x17, 0x1e, 0xe3, 0xd0, 0x29, 0xfe, 0xe4, 0xe4,
  0x16, 0xfb, 0xfb, 0xc7, 0x19, 0x08, 0xd6, 0xe2, 0x00, 0xc4, 0xc7, 0x02,
  0xe9, 0xe2, 0x1b, 0xcd, 0x56, 0xe6, 0xff, 0xff, 0x04, 0x00, 0x00, 0x00,
  0x08, 0x00, 0x00, 0x00, 0xff, 0xff, 0xff, 0xff, 0x50, 0x00, 0x00, 0x00,
  0x6a, 0xe6, 0xff, 0xff, 0x04, 0x00, 0x00, 0x00, 0x00, 0x01, 0x00, 0x00,
  0x1f, 0xe9, 0xce, 0xbb, 0x1a, 0x6a, 0xc2, 0xbd, 0x7a, 0x69, 0x26, 0xbd,
  0x15, 0xa6, 0x5f, 0x3e, 0x28, 0xa3, 0x67, 0x3e, 0x8f, 0xbd, 0xc1, 0x3d,
  0x8d, 0x55, 0x0a, 0xbe, 0x10, 0x26, 0x12, 0xbe, 0x9b, 0xd9, 0x0e, 0x3e,
  0x4d, 0x8e, 0x04, 0x3d, 0xf3, 0x59, 0xc0, 0xbd, 0x37, 0x86, 0x9d, 0x3e,
  0xa7, 0xb8, 0x12, 0xbe, 0x5c, 0x06, 0x56, 0x3d, 0x90, 0x2c, 0x5a, 0xbd,
  0xa3, 0x56, 0x55, 0xbd, 0x1a, 0xf9, 0x7b, 0xbe, 0x31, 0x01, 0x27, 0xbe,
  0x90, 0x69, 0x29, 0x3e, 0xf4, 0x29, 0x45, 0xbc, 0x5e, 0xae, 0x18, 0xbe,
  0x8e, 0x85, 0x48, 0x3e, 0x59, 0xfe, 0x2f, 0x3e, 0xc9, 0x59, 0x61, 0x3e,
  0xdb, 0x51, 0xb9, 0x3d, 0x55, 0x0c, 0x28, 0x3d, 0xd9, 0x6c, 0x3f, 0x3e,
  0x4e, 0xc4, 0x99, 0x3d, 0x81, 0x1a, 0x01, 0xbb, 0x9c, 0xb9, 0x2f, 0xbe,
  0xa8, 0x7c, 0xc3, 0x3d, 0x54, 0xee, 0xab, 0x3d, 0x17, 0xd2, 0xef, 0x3d,
  0xfa, 0xbd, 0x56, 0xbd, 0x7d, 0x31, 0x31, 0x3d, 0x4c, 0xe9, 0x10, 0x3e,
  0xcb, 0x78, 0xa2, 0xbd, 0xf1, 0x17, 0x06, 0xbd, 0x01, 0xc2, 0x05, 0xbe,
  0xed, 0x66, 0x6a, 0xbe, 0xed, 0xad, 0x54, 0xbc, 0xdb, 0xaa, 0x59, 0x3c,
  0x0a, 0x34, 0xdf, 0xbc, 0x38, 0xec, 0xd1, 0xbd, 0x15, 0x9e, 0x81, 0xba,
  0x7e, 0xef, 0x37, 0x3d, 0x45, 0x99, 0x96, 0xbe, 0x46, 0xd9, 0x73, 0x3c,
  0x13, 0xc6, 0x3e, 0xbd, 0xac, 0xd4, 0xaf, 0xbd, 0x28, 0xc8, 0xd9, 0xbd,
  0x8e, 0x1d, 0xf3, 0xbd, 0xf1, 0x28, 0x3f, 0x3e, 0x02, 0x75, 0x39, 0x3d,
  0x8a, 0x71, 0x4d, 0xbe, 0x74, 0xfc, 0x13, 0xbe, 0x74, 0x1a, 0x11, 0x3b,
  0x21, 0xcc, 0x0a, 0x3e, 0x8b, 0xed, 0x60, 0xbe, 0x02, 0x20, 0x88, 0xbe,
  0xaf, 0x97, 0x5a, 0x3d, 0x9a, 0x40, 0xc6, 0x3c, 0x4f, 0x3d, 0x0c, 0x3e,
  0xd1, 0xc1, 0xc7, 0xbd, 0x76, 0xe7, 0xff, 0xff, 0x04, 0x00, 0x00, 0x00,
  0x10, 0x00, 0x00, 0x00, 0x64, 0xad, 0x14, 0xbe, 0x5a, 0x58, 0xc0, 0x3d,
  0x34, 0xce, 0x58, 0x3e, 0x77, 0x5d, 0x69, 0xbe, 0x92, 0xe7, 0xff, 0xff,
  0x04, 0x00, 0x00, 0x00, 0x00, 0x09, 0x00, 0x00, 0xc2, 0x71, 0x06, 0x3e,
  0xd1, 0x23, 0x9d, 0xbd, 0xd2, 0xa2, 0xbc, 0xbd, 0xcc, 0x50, 0x83, 0x3d,
  0x1c, 0x83, 0xab, 0x3c, 0xd1, 0x03, 0x08, 0x3d, 0x42, 0x3b, 0x08, 0x3e,
  0x27, 0x1d, 0x78, 0x3d, 0x35, 0x29, 0xfa, 0x3d, 0x07, 0xe5, 0xd7, 0xbd,
  0x94, 0xcf, 0xd7, 0xbd, 0x35, 0xc8, 0xe3, 0x3c, 0xb9, 0x78, 0x0e, 0x3d,
  0x60, 0x08, 0x35, 0x3d, 0x58, 0x30, 0x13, 0xbe, 0x6c, 0xc4, 0xfb, 0x3d,
  0x1d, 0x2f, 0x32, 0x3e, 0x32, 0x1f, 0x1b, 0xbd, 0x74, 0x79, 0x8a, 0xbd,
  0x84, 0x4b, 0x51, 0x3e, 0x89, 0x4c, 0xd1, 0xbe, 0x6b, 0x6f, 0x3a, 0x3d,
  0x50, 0xd0, 0x90, 0xbe, 0x39, 0xd1, 0x09, 0x3d, 0x9f, 0x8d, 0x25, 0xbe,
  0x03, 0xc1, 0x55, 0x3e, 0xbf, 0x26, 0xcd, 0x3d, 0x7f, 0x2d, 0x86, 0xbd,
  0xe3, 0x71, 0x18, 0xbd, 0xf1, 0x78, 0x4c, 0xbe, 0x6b, 0x13, 0xbb, 0x3c,
  0x67, 0x32, 0x77, 0x3d, 0xfb, 0x18, 0x5b, 0xbe, 0x3b, 0x1f, 0xa2, 0xbd,
  0x35, 0x13, 0x0d, 0x3c, 0x94, 0x6d, 0x85, 0xbd, 0xb9, 0xff, 0x3a, 0xbe,
  0xa4, 0x58, 0x12, 0x3d, 0x23, 0x9e, 0x87, 0xbd, 0xe8, 0x19, 0x45, 0xbb,
  0x6f, 0x2c, 0x08, 0xbe, 0x5d, 0xae, 0xfd, 0xbd, 0x74, 0x99, 0x97, 0x3d,
  0x03, 0xa5, 0xd6, 0x3d, 0x6c, 0xa1, 0xe2, 0x3c, 0xfd, 0xde, 0x90, 0x3d,
  0x31, 0x3c, 0x9d, 0xbd, 0x37, 0x00, 0xab, 0xbd, 0x94, 0xdb, 0xa3, 0x3d,
  0xd5, 0xb0, 0xf2, 0x3d, 0x8a, 0x80, 0x1f, 0xbd, 0x78, 0x31, 0x23, 0xbd,
  0x79, 0x22, 0xf1, 0x3d, 0x00, 0x74, 0xbd, 0xbd, 0x7a, 0xd5, 0xd4, 0xbe,
  0x47, 0x6b, 0x00, 0xbe, 0x97, 0xb1, 0x89, 0xbd, 0x72, 0x90, 0x5f, 0x3d,
  0x29, 0x56, 0x84, 0xbc, 0x09, 0xc4, 0x99, 0xbd, 0x61, 0xd7, 0x1d, 0xbe,
  0x1f, 0x1f, 0x80, 0xbe, 0xae, 0xb0, 0x83, 0xbe, 0xa3, 0x52, 0xf8, 0xbd,
  0x6b, 0xa3, 0x85, 0xbe, 0xf8, 0x71, 0xdf, 0xbd, 0xf8, 0x49, 0x60, 0x3e,
  0xb1, 0x8b, 0x57, 0xbe, 0x0e, 0x97, 0x29, 0xbe, 0x63, 0xa9, 0x8e, 0xbe,
  0x4f, 0xd8, 0x1a, 0x3d, 0xfa, 0xbe, 0x77, 0xbe, 0x09, 0xaf, 0x36, 0xbd,
  0xa2, 0x8c, 0x75, 0xbc, 0xda, 0xb3, 0x87, 0xbd, 0x2b, 0xa6, 0x8a, 0x3e,
  0xf1, 0x6f, 0x9b, 0xbc, 0x6f, 0x37, 0x22, 0x3e, 0x39, 0x77, 0x07, 0xbe,
  0xe5, 0x57, 0x3d, 0x3d, 0x58, 0x88, 0x55, 0xbe, 0x67, 0x43, 0xec, 0x3d,
  0x2e, 0x42, 0xe1, 0xbd, 0xc3, 0xef, 0xb3, 0xbc, 0x7b, 0x5c, 0x27, 0x3d,
  0x3f, 0x4e, 0xee, 0x3d, 0x56, 0x8d, 0x60, 0xbe, 0x35, 0xca, 0xc9, 0xbb,
  0xb9, 0x47, 0x51, 0x3d, 0xb5, 0x69, 0x61, 0xbe, 0xe0, 0x38, 0x16, 0xbe,
  0x35, 0x74, 0x36, 0xbd, 0xdb, 0x33, 0x23, 0xbd, 0x9d, 0xad, 0x59, 0xbd,
  0xf2, 0xfc, 0xcb, 0xbd, 0x45, 0x7e, 0x2f, 0xbd, 0xfe, 0x64, 0x91, 0xbe,
  0x9e, 0xa8, 0xd0, 0x3c, 0xc7, 0xe8, 0x90, 0xbd, 0xd1, 0xf1, 0x57, 0x3d,
  0x0e, 0xb4, 0xe0, 0xbd, 0x5b, 0x5d, 0xea, 0x3d, 0xdd, 0x1d, 0x0b, 0xbe,
  0xed, 0xce, 0x06, 0xbe, 0xc6, 0x02, 0x1c, 0xbe, 0x87, 0x55, 0x9f, 0xbd,
  0x15, 0xd9, 0xce, 0xba, 0xd6, 0x1f, 0xab, 0xbe, 0x0c, 0x48, 0x98, 0x3d,
  0xbd, 0x5e, 0x52, 0x3e, 0xa6, 0xdf, 0xfe, 0x3d, 0x99, 0xbc, 0xee, 0xbd,
  0x5e, 0xb9, 0x91, 0x3d, 0xb9, 0x9c, 0xbe, 0xbc, 0x06, 0x07, 0x72, 0xbe,
  0xb1, 0x9c, 0x9c, 0xbe, 0x16, 0xbf, 0x40, 0x3e, 0x06, 0x75, 0x70, 0x3e,
  0x53, 0x6f, 0x0a, 0xbc, 0xd8, 0x41, 0xa1, 0xbd, 0xd7, 0x2d, 0x48, 0xbc,
  0x87, 0x75, 0x3b, 0xbd, 0xc6, 0x92, 0x3b, 0xbe, 0xaf, 0x1e, 0xd7, 0xbd,
  0x27, 0xc5, 0x98, 0xbd, 0x66, 0xd3, 0x1e, 0x3e, 0x3c, 0x90, 0x4a, 0xbe,
  0x75, 0x5d, 0x19, 0x3d, 0xbb, 0x14, 0x1d, 0xbe, 0x2a, 0xe8, 0xae, 0xbd,
  0x8a, 0xa4, 0x06, 0xbd, 0x1d, 0xaf, 0x25, 0xbe, 0x53, 0x6f, 0xa2, 0xbd,
  0x9c, 0x9d, 0x38, 0xbc, 0x8f, 0x47, 0xe2, 0xbd, 0x3d, 0x72, 0x4c, 0xbe,
  0x72, 0xde, 0x37, 0xbe, 0x77, 0x64, 0x82, 0x3d, 0x35, 0x3e, 0x99, 0x3d,
  0xb9, 0x4f, 0x0f, 0xbe, 0x7f, 0x26, 0x6c, 0xbe, 0x84, 0xc2, 0xa5, 0x3b,
  0x83, 0x77, 0x64, 0x3e, 0x42, 0x0a, 0x47, 0x3c, 0xa4, 0xff, 0xed, 0x3b,
  0xeb, 0x80, 0xaf, 0x3e, 0xf6, 0x94, 0x01, 0xbe, 0x2d, 0x96, 0x9e, 0xbe,
  0xa5, 0x43, 0x01, 0xbe, 0x6f, 0x98, 0x94, 0x3d, 0x19, 0x41, 0xe4, 0xbb,
  0xe3, 0xc8, 0x06, 0x3e, 0x88, 0x67, 0x53, 0xbd, 0x30, 0x50, 0x0d, 0xbe,
  0xb7, 0x7c, 0x6d, 0xbd, 0x45, 0x5b, 0x99, 0xbe, 0xf7, 0xe3, 0xeb, 0x3d,
  0x48, 0xe6, 0xd6, 0xbb, 0x78, 0xd8, 0x17, 0x3d, 0xd1, 0x46, 0x75, 0x3e,
  0xf5, 0xde, 0x38, 0x3c, 0x34, 0xa3, 0xbc, 0x3e, 0x15, 0xde, 0x5a, 0xbd,
  0x13, 0x43, 0x30, 0xbe, 0x2e, 0x65, 0xa5, 0xbd, 0xd1, 0x86, 0xc0, 0xbd,
  0xbd, 0x31, 0xf5, 0xbb, 0xd8, 0x21, 0xc8, 0x3d, 0x0d, 0x11, 0x2a, 0xbd,
  0xbe, 0xd7, 0x3e, 0x3d, 0x69, 0xeb, 0x46, 0xbd, 0x3f, 0xbc, 0x81, 0xbd,
  0x97, 0xe2, 0x80, 0x3e, 0x9a, 0x88, 0xd4, 0xbd, 0x96, 0x14, 0x5d, 0x3d,
  0x97, 0x53, 0x28, 0x3d, 0x1f, 0x8a, 0xd5, 0x3c, 0x03, 0x4e, 0x23, 0xbe,
  0x69, 0xec, 0x34, 0xbe, 0x04, 0xf3, 0x3a, 0x3b, 0x0d, 0x24, 0x04, 0x3e,
  0xcf, 0x8f, 0x88, 0xbc, 0x67, 0xb2, 0x23, 0xbe, 0x97, 0xc7, 0xef, 0xbd,
  0xc7, 0xd5, 0x1a, 0x3d, 0x35, 0xf6, 0x8c, 0x3d, 0x74, 0x67, 0x67, 0xbe,
  0x8e, 0x24, 0x20, 0x3c, 0xd7, 0xd1, 0xb5, 0x3d, 0xe0, 0xd9, 0x9e, 0x3c,
  0x1f, 0xe4, 0x90, 0xbe, 0xb3, 0x45, 0xac, 0x3c, 0x49, 0x62, 0x8d, 0x3d,
  0x78, 0xe4, 0xdd, 0x3d, 0xc7, 0x94, 0xa4, 0xbc, 0xba, 0x8e, 0xfc, 0xbd,
  0x29, 0x79, 0xfc, 0xbd, 0x6f, 0x82, 0x86, 0xbd, 0xc1, 0xb4, 0x4c, 0x3d,
  0x47, 0xdc, 0x8d, 0x3d, 0xbd, 0x74, 0x24, 0x3e, 0xa5, 0xd2, 0x53, 0xbd,
  0x7e, 0xfc, 0x29, 0xbe, 0x31, 0x47, 0x10, 0xbe, 0xc9, 0x3b, 0x1f, 0xbe,
  0x6f, 0x42, 0x50, 0xbe, 0x16, 0xdc, 0x8b, 0xbd, 0x6d, 0xa5, 0xcf, 0xbd,
  0x30, 0xa7, 0xca, 0x3c, 0xae, 0x85, 0xbf, 0xbd, 0x21, 0x32, 0x0b, 0xbc,
  0xb3, 0x3b, 0x2c, 0xbd, 0x8f, 0x77, 0x27, 0xbd, 0x13, 0x81, 0xe1, 0xbd,
  0x45, 0x97, 0x08, 0x3e, 0xc7, 0x5b, 0x3d, 0xbd, 0x1a, 0x47, 0x80, 0xbd,
  0x24, 0xd9, 0x29, 0xbf, 0xa5, 0xe4, 0x37, 0xbd, 0x92, 0x41, 0x90, 0xbe,
  0x0c, 0xdb, 0xa6, 0xbe, 0x49, 0x86, 0x44, 0x3d, 0xd0, 0xb5, 0x82, 0xbe,
  0xe9, 0x93, 0xc4, 0xbe, 0x10, 0x57, 0x4d, 0x3d, 0xad, 0x23, 0x5e, 0xbe,
  0xd0, 0x63, 0x40, 0xbd, 0xb0, 0x2c, 0xc6, 0xbd, 0x78, 0x09, 0xb9, 0xbc,
  0x7d, 0x89, 0xeb, 0x3c, 0xf8, 0xab, 0xa1, 0xbd, 0xd2, 0x55, 0x6b, 0xbe,
  0x27, 0x31, 0x6f, 0xbc, 0x7c, 0x8f, 0xc0, 0xbd, 0x63, 0x86, 0x1f, 0x3e,
  0x68, 0xd6, 0x06, 0x3c, 0x10, 0x65, 0x6f, 0xbe, 0x99, 0xef, 0x9d, 0xbd,
  0xce, 0x21, 0x82, 0x3d, 0x3a, 0x06, 0x3e, 0xbe, 0xb4, 0x7b, 0x6e, 0x3d,
  0x64, 0x1d, 0xa9, 0x3c, 0xf9, 0x66, 0x5d, 0xbd, 0x72, 0xf9, 0x1c, 0x3d,
  0x47, 0xfa, 0xc1, 0x3c, 0xdf, 0x4f, 0x22, 0x3e, 0x5a, 0x2a, 0x05, 0xbe,
  0x16, 0x51, 0x82, 0xbe, 0x63, 0xa0, 0x19, 0x3d, 0x89, 0x68, 0x35, 0x3e,
  0x32, 0x40, 0xa5, 0x3c, 0x04, 0x53, 0x63, 0x3e, 0xdb, 0xdb, 0xc6, 0xbd,
  0x00, 0xde, 0x63, 0xbd, 0x55, 0xe1, 0x0a, 0xbf, 0x95, 0x72, 0x12, 0xbe,
  0x4f, 0x0a, 0xea, 0x3d, 0xcc, 0xe0, 0x64, 0x3d, 0x85, 0x49, 0xa9, 0x3d,
  0xb4, 0x5d, 0xf9, 0x3c, 0x07, 0xbf, 0x45, 0x3e, 0xbf, 0xf1, 0x83, 0xbd,
  0xd4, 0x5c, 0x52, 0xbe, 0x2c, 0x84, 0x61, 0x3c, 0xf0, 0x06, 0xc0, 0x3d,
  0x6b, 0x79, 0x01, 0x3d, 0xf4, 0xd2, 0x44, 0x3b, 0x37, 0x7f, 0x92, 0x3d,
  0xbc, 0x29, 0x13, 0xbd, 0x5e, 0xcb, 0x1c, 0xbe, 0x2e, 0x8b, 0xf1, 0xbd,
  0x2d, 0x2c, 0x9b, 0x3b, 0x3f, 0x12, 0x8a, 0x3c, 0x5c, 0x80, 0x84, 0xbe,
  0x77, 0x06, 0xb1, 0x3c, 0xa1, 0xc3, 0x96, 0xbd, 0xd4, 0x70, 0xcf, 0x3d,
  0xa2, 0x93, 0x7a, 0x3d, 0x9d, 0x65, 0xe5, 0xbd, 0x1b, 0xad, 0x19, 0xbe,
  0xe4, 0xad, 0x8b, 0x3d, 0x93, 0x1d, 0x82, 0xbe, 0xbd, 0xfd, 0xcb, 0xbd,
  0x50, 0xa6, 0x05, 0x3e, 0x93, 0x62, 0x9e, 0xbd, 0x27, 0xde, 0x23, 0xbc,
  0xa6, 0x89, 0x0f, 0x3e, 0x31, 0xeb, 0x9a, 0x3d, 0xeb, 0x9e, 0x68, 0xbe,
  0x3d, 0xca, 0x50, 0xbe, 0x87, 0xe5, 0x4f, 0x3d, 0x4b, 0x63, 0x03, 0xbd,
  0x5b, 0x7b, 0x9e, 0x3d, 0x3b, 0x40, 0xad, 0x3e, 0xf9, 0x48, 0x9b, 0x3c,
  0xf0, 0x3f, 0xec, 0xbd, 0x7d, 0x62, 0x57, 0xbe, 0x28, 0xbb, 0x83, 0xbd,
  0xa4, 0x9c, 0x99, 0xbe, 0x77, 0x06, 0xc7, 0xbd, 0x64, 0x42, 0x11, 0xbd,
  0x58, 0xf9, 0x99, 0x3d, 0xc2, 0x88, 0xd1, 0xbd, 0xaa, 0x5d, 0x2a, 0xbd,
  0x87, 0x42, 0xb3, 0xbd, 0x75, 0x19, 0x01, 0xbe, 0xf3, 0x72, 0x2d, 0xbe,
  0xe0, 0x9b, 0x27, 0xbe, 0x34, 0x8e, 0x2c, 0xbc, 0xee, 0xfd, 0x74, 0x3e,
  0x25, 0x0b, 0xbc, 0xbd, 0x1f, 0xdb, 0x6d, 0xbd, 0xbd, 0xdc, 0x6c, 0xbd,
  0xf0, 0x47, 0x92, 0xbd, 0xc6, 0x4b, 0x8f, 0xbe, 0xca, 0xa8, 0xa3, 0xbd,
  0xa7, 0xbe, 0x22, 0x3d, 0x0f, 0x87, 0xb7, 0xbd, 0xba, 0x72, 0x41, 0x3d,
  0x91, 0x63, 0x71, 0x3c, 0xff, 0xe1, 0x43, 0x3d, 0x3e, 0xd1, 0x2b, 0xbc,
  0xbc, 0x19, 0x8c, 0x3c, 0xf4, 0x48, 0x47, 0x3c, 0x69, 0x8d, 0x6f, 0x3d,
  0x87, 0xd2, 0xf3, 0xbd, 0x48, 0x14, 0x3d, 0x3e, 0x59, 0x28, 0x80, 0xbc,
  0x76, 0x6c, 0x28, 0x3d, 0x73, 0x63, 0x48, 0xbd, 0x23, 0xf6, 0xe4, 0xbc,
  0x50, 0x80, 0xeb, 0xbd, 0x88, 0xd8, 0xd8, 0xbd, 0x94, 0x67, 0x39, 0x3d,
  0xb5, 0xfd, 0xd8, 0x3d, 0x71, 0xf5, 0x3d, 0x3d, 0xc9, 0x6e, 0xc5, 0xbd,
  0x74, 0x03, 0x1d, 0xbe, 0x9c, 0x12, 0xaf, 0xbe, 0x10, 0xfe, 0x73, 0xbe,
  0xa0, 0xf0, 0x20, 0xbb, 0xf7, 0x0c, 0x77, 0x3e, 0xad, 0xe3, 0x84, 0x3e,
  0x96, 0x67, 0x21, 0x3d, 0xfa, 0x17, 0x10, 0x3d, 0xd6, 0x9b, 0xeb, 0xbd,
  0x64, 0x70, 0x82, 0xbe, 0x35, 0x54, 0x1b, 0xbd, 0x1a, 0x8e, 0x52, 0x3d,
  0x36, 0x8b, 0xc6, 0x3d, 0xcf, 0x63, 0xb2, 0xbd, 0x3b, 0xe9, 0x92, 0x3c,
  0x40, 0xa8, 0x0e, 0x3e, 0x41, 0x64, 0x42, 0xbe, 0xc6, 0x69, 0x08, 0xbc,
  0x0d, 0x6f, 0x6b, 0x3c, 0x61, 0xcd, 0x2c, 0xbe, 0x6a, 0xe6, 0x1a, 0x3b,
  0xc9, 0x71, 0x23, 0x3e, 0xa4, 0x6f, 0x63, 0x3c, 0x3b, 0xaa, 0xf1, 0xbd,
  0x35, 0x5c, 0xac, 0xbd, 0xde, 0xe6, 0xa8, 0x3c, 0xaa, 0x26, 0x58, 0xbe,
  0x0a, 0x8d, 0xf6, 0x3d, 0x9b, 0x97, 0x0f, 0x3e, 0x9a, 0x9c, 0x3d, 0xbc,
  0xf6, 0x14, 0xa1, 0xbd, 0x7a, 0xa4, 0xf7, 0xbd, 0x0b, 0xac, 0xbb, 0xbd,
  0x14, 0x3c, 0x54, 0x3d, 0x31, 0x28, 0x44, 0xbe, 0x3d, 0xd5, 0x9b, 0x3d,
  0xaf, 0x94, 0xe5, 0x3d, 0xae, 0x83, 0x85, 0x3d, 0xcb, 0x1b, 0x8e, 0xbb,
  0xee, 0x12, 0x2a, 0xbe, 0xa5, 0xed, 0x2b, 0xbd, 0x9f, 0xf5, 0xac, 0xbd,
  0xa1, 0x04, 0xcb, 0xbd, 0x94, 0xca, 0xec, 0xbd, 0xba, 0xe7, 0x3f, 0x3d,
  0x4d, 0x3f, 0xc3, 0xbd, 0xec, 0xfe, 0x99, 0xbd, 0x83, 0xdf, 0x09, 0x3d,
  0xfc, 0x65, 0xc8, 0xbd, 0x6f, 0xd5, 0x47, 0x3d, 0x10, 0xbd, 0x6c, 0xbb,
  0x75, 0xa9, 0x61, 0x3d, 0x97, 0x8c, 0x16, 0xbe, 0xff, 0x56, 0x78, 0x3e,
  0x07, 0x05, 0x07, 0x3d, 0xf3, 0x1e, 0x2a, 0x3d, 0x4d, 0x97, 0xdb, 0xbd,
  0x8b, 0xc9, 0x27, 0x3e, 0x1a, 0x1e, 0x86, 0x3c, 0xb5, 0xa1, 0x9e, 0xbd,
  0x6a, 0xeb, 0x33, 0xbe, 0x8a, 0x8f, 0x53, 0x3e, 0x19, 0xd9, 0x56, 0x3d,
  0xc8, 0x8e, 0x14, 0x3d, 0xcb, 0xe8, 0xbb, 0x3d, 0x8f, 0xf7, 0x80, 0x3d,
  0x1c, 0x37, 0xff, 0xbd, 0x66, 0xa0, 0x51, 0xbe, 0xf7, 0x41, 0xde, 0x3d,
  0x37, 0x67, 0x8a, 0x3e, 0x90, 0x50, 0x8e, 0x3d, 0x36, 0x9d, 0x7e, 0x3c,
  0x72, 0x73, 0x4b, 0xbe, 0xe4, 0x83, 0x17, 0xbd, 0x94, 0x47, 0xa2, 0x3d,
  0xb9, 0xe5, 0x94, 0xbe, 0x06, 0x91, 0xa0, 0xbd, 0x66, 0x49, 0x38, 0x3e,
  0xab, 0xfe, 0xa3, 0x3d, 0x9b, 0x2e, 0x28, 0xbe, 0x26, 0x2a, 0x5b, 0xbe,
  0xb6, 0xac, 0x0d, 0xbd, 0xc2, 0xcd, 0x66, 0x3d, 0xb4, 0xaf, 0xc4, 0xbd,
  0x37, 0x26, 0xde, 0xbd, 0xcb, 0x7f, 0x46, 0x3e, 0x31, 0x65, 0x18, 0xbe,
  0x00, 0xff, 0xc1, 0xbe, 0x6a, 0xf2, 0x82, 0xbe, 0xc4, 0xef, 0xc8, 0x3b,
  0x33, 0x3f, 0x02, 0x3e, 0x64, 0xbe, 0x28, 0x3d, 0x51, 0x85, 0x1d, 0x3e,
  0xeb, 0x2b, 0x93, 0x3e, 0x05, 0x71, 0x99, 0xbe, 0xab, 0xc6, 0x24, 0xbe,
  0xa1, 0x1c, 0x80, 0x3d, 0xe2, 0x1a, 0x59, 0x3e, 0x12, 0x1a, 0xa7, 0xbd,
  0x5a, 0x13, 0x53, 0xbe, 0x74, 0x9f, 0x3c, 0x39, 0xa8, 0x7b, 0x23, 0xbe,
  0x8b, 0xe1, 0xa3, 0xbe, 0xa2, 0x7f, 0x3b, 0xbe, 0x1f, 0xce, 0x11, 0x3e,
  0xbc, 0x4e, 0x5b, 0xbd, 0x67, 0xc8, 0xa2, 0xba, 0x8e, 0x61, 0x3a, 0xbe,
  0x04, 0xd0, 0xd3, 0xbd, 0x02, 0x46, 0x46, 0xbe, 0x3d, 0xf0, 0x5e, 0xbe,
  0x11, 0x95, 0x74, 0xbe, 0x88, 0x47, 0xa6, 0x3d, 0xe4, 0x83, 0xa7, 0x3e,
  0xdc, 0x20, 0x6e, 0xbd, 0xf7, 0x5d, 0x22, 0xbe, 0x23, 0x48, 0xc9, 0x3d,
  0x25, 0xdc, 0x3f, 0xbe, 0xc5, 0x7d, 0xfd, 0xbd, 0x6c, 0x73, 0xd0, 0x3c,
  0xee, 0x93, 0xb5, 0xbd, 0x51, 0x50, 0x92, 0x3d, 0x93, 0x52, 0x1d, 0x3e,
  0x08, 0xf2, 0x29, 0xbd, 0x49, 0x75, 0x8d, 0xbd, 0x08, 0x07, 0x53, 0x3d,
  0x13, 0x4b, 0x8b, 0xbe, 0x17, 0x65, 0x24, 0xbc, 0xb7, 0xd4, 0xfc, 0xbd,
  0xb1, 0xda, 0xa8, 0x3d, 0x32, 0x87, 0xcf, 0xbc, 0x69, 0xdf, 0xf7, 0x3d,
  0xec, 0x8e, 0x94, 0xbd, 0x7d, 0x05, 0x43, 0x3e, 0x23, 0x38, 0x70, 0xbe,
  0x1f, 0xe4, 0xd8, 0xbc, 0xde, 0x11, 0x93, 0xbe, 0xe0, 0x7c, 0x48, 0xbd,
  0xf2, 0x6c, 0x1f, 0xbd, 0x2d, 0x00, 0x87, 0xbd, 0xbe, 0x5b, 0x7f, 0xbd,
  0xe1, 0x96, 0x6a, 0x3e, 0xe2, 0x41, 0x97, 0x39, 0xbf, 0x44, 0x4a, 0xbd,
  0x80, 0xf5, 0xd8, 0xbe, 0xa0, 0xd4, 0xc3, 0xbc, 0x6f, 0x08, 0x0a, 0x3e,
  0xbf, 0x26, 0x50, 0x3c, 0xa9, 0x3a, 0xe3, 0xbc, 0x32, 0x79, 0x0a, 0x3e,
  0xd2, 0xd5, 0x9f, 0xbd, 0x99, 0x1e, 0x3e, 0x3e, 0x0d, 0x24, 0x97, 0xbe,
  0xd1, 0x61, 0x1e, 0xbe, 0x45, 0xd9, 0xd1, 0x3d, 0xc2, 0x21, 0x8e, 0x3e,
  0x25, 0x35, 0xc1, 0xbb, 0x70, 0x06, 0xd2, 0x3d, 0x04, 0xc9, 0x5d, 0x3d,
  0x35, 0xa2, 0x00, 0x3e, 0xe5, 0xb9, 0x99, 0xbe, 0xf4, 0x96, 0x3b, 0xbd,
  0x08, 0xe6, 0xe3, 0x3c, 0x9e, 0x3d, 0x7a, 0x3e, 0xca, 0xf2, 0x01, 0xbd,
  0x81, 0xa4, 0x08, 0x3e, 0xa1, 0x4a, 0xb4, 0x3d, 0x34, 0xff, 0xf1, 0xbb,
  0x11, 0xd7, 0x44, 0xbe, 0x6e, 0xc0, 0x30, 0xbd, 0x45, 0x31, 0x23, 0xbe,
  0x3c, 0xac, 0x89, 0x3b, 0x39, 0x24, 0xcf, 0xbd, 0xe5, 0x29, 0x4e, 0x3e,
  0x56, 0x2e, 0x8d, 0xbd, 0x59, 0x9c, 0xbb, 0xbd, 0x61, 0x2c, 0x30, 0xbe,
  0x82, 0x9c, 0x92, 0xbd, 0x52, 0xa1, 0x85, 0xbb, 0x17, 0x22, 0x49, 0xbe,
  0x48, 0x96, 0x5f, 0xbe, 0x56, 0x7b, 0x13, 0x3d, 0xe4, 0x55, 0xdf, 0xbd,
  0x2c, 0x52, 0x90, 0x3c, 0x82, 0x1f, 0xfe, 0xbc, 0x8a, 0x02, 0x92, 0xbd,
  0x54, 0x5a, 0xad, 0x3d, 0x33, 0x64, 0xcf, 0xbc, 0xae, 0xc5, 0xa8, 0xbe,
  0x59, 0x7f, 0xa9, 0x3e, 0x9b, 0x1e, 0x3b, 0x3e, 0xad, 0xaa, 0x08, 0x3e,
  0xc2, 0x38, 0x0e, 0xbd, 0x80, 0x96, 0x90, 0xbd, 0x48, 0xe6, 0x32, 0x3d,
  0x22, 0x15, 0x7a, 0x3d, 0x09, 0x70, 0x30, 0x3c, 0xa9, 0xe4, 0xee, 0xbe,
  0xfa, 0x26, 0x36, 0xbe, 0xdb, 0xbf, 0x20, 0x3d, 0x05, 0x19, 0xa9, 0x3d,
  0xe1, 0x64, 0x83, 0xbd, 0xb7, 0x25, 0xa1, 0x3a, 0xdc, 0xa8, 0xb9, 0x3d,
  0x59, 0x78, 0xaa, 0x3c, 0xd9, 0x7f, 0x9b, 0xbe, 0x35, 0x44, 0xce, 0xbd,
  0x0f, 0x6c, 0x5a, 0x3c, 0x3d, 0xdb, 0x05, 0xbe, 0x36, 0x38, 0x80, 0x3c,
  0xc4, 0x45, 0x65, 0xbd, 0x04, 0x64, 0x37, 0x3e, 0xaf, 0x18, 0x22, 0xbe,
  0x99, 0x97, 0x61, 0xbe, 0xb8, 0x26, 0xa7, 0x3d, 0x7c, 0x32, 0xea, 0xbd,
  0x18, 0x52, 0x00, 0x3e, 0xad, 0x12, 0xaf, 0xbc, 0x64, 0x4c, 0x08, 0x3d,
  0xcc, 0x9f, 0x28, 0xbe, 0x66, 0xef, 0xfe, 0x3d, 0xaf, 0xf5, 0x14, 0xbe,
  0x97, 0xee, 0x9b, 0xbe, 0xf6, 0xd3, 0x7c, 0xbe, 0x23, 0xbe, 0xa2, 0xbd,
  0xb3, 0x63, 0xd0, 0xbd, 0xa3, 0xb9, 0x7c, 0x3d, 0x99, 0x05, 0xc1, 0xbd,
  0x29, 0x5c, 0x2d, 0x3e, 0xcd, 0x7e, 0x01, 0xbe, 0x3e, 0xd7, 0x8f, 0xbd,
  0x4e, 0x0d, 0x93, 0xbc, 0xb5, 0x6e, 0x6e, 0x3d, 0xc8, 0xde, 0x4e, 0xbd,
  0x8d, 0x93, 0x1c, 0xbe, 0x9f, 0xf8, 0xc3, 0xbe, 0xb0, 0x52, 0xee, 0x3d,
  0x25, 0x31, 0xad, 0xbd, 0xa9, 0x9c, 0xf2, 0xbc, 0x9e, 0xf0, 0xff, 0xff,
  0x04, 0x00, 0x00, 0x00, 0x00, 0x09, 0x00, 0x00, 0xfe, 0x37, 0x20, 0xbd,
  0xaa, 0x19, 0x3e, 0x3c, 0x1b, 0xe2, 0xe5, 0xbd, 0xee, 0xa4, 0xd4, 0xbe,
  0x2f, 0x61, 0x00, 0x3e, 0xb4, 0x06, 0xaa, 0xbd, 0x30, 0x2e, 0x19, 0xbe,
  0x85, 0xf2, 0x8a, 0xbe, 0xa5, 0xb2, 0xf1, 0x3d, 0xd2, 0x5b, 0xdb, 0xbc,
  0xb4, 0x74, 0x20, 0xbe, 0x02, 0x63, 0x4c, 0x3c, 0xba, 0x8c, 0x88, 0xbe,
  0xe9, 0xc8, 0xbd, 0x3d, 0x24, 0x90, 0xa3, 0xbe, 0x83, 0x41, 0xb3, 0x3d,
  0x56, 0x39, 0x3e, 0xbe, 0xac, 0xb1, 0xd3, 0xbc, 0x81, 0x3f, 0xa6, 0x3d,
  0xff, 0x80, 0xd0, 0x3d, 0x1d, 0x66, 0xd0, 0xba, 0x30, 0x57, 0x20, 0xbd,
  0xb2, 0xff, 0xbe, 0x3d, 0x5c, 0x0e, 0x4d, 0x3d, 0x37, 0xc3, 0x0f, 0x3e,
  0xee, 0xa9, 0x87, 0xbc, 0x27, 0x30, 0xb9, 0x3c, 0x8b, 0xa0, 0x1d, 0xbd,
  0xa8, 0x3f, 0x0a, 0x3c, 0x92, 0x2d, 0x6a, 0x3e, 0x02, 0x43, 0xbf, 0xbd,
  0xb5, 0xc1, 0x3e, 0x3c, 0xee, 0x8c, 0x5b, 0xbc, 0xe6, 0x38, 0x01, 0xbd,
  0x0c, 0xf0, 0x06, 0x3e, 0xdb, 0x73, 0x32, 0xbd, 0xe5, 0x49, 0xba, 0xbd,
  0xa4, 0x95, 0x71, 0xbd, 0x27, 0x98, 0x15, 0x3d, 0xd9, 0x29, 0x1c, 0x3d,
  0x21, 0x50, 0x7c, 0x3d, 0x19, 0x4f, 0x1b, 0x3d, 0x5c, 0xbf, 0x72, 0xbd,
  0xe9, 0xc0, 0x17, 0xbe, 0x18, 0x94, 0x75, 0xbd, 0xd9, 0xf0, 0x32, 0x3b,
  0x26, 0xdf, 0x36, 0xbe, 0x0c, 0xc7, 0x87, 0x3d, 0x53, 0x82, 0x4d, 0xbd,
  0xca, 0xf4, 0x8a, 0xbd, 0x72, 0x3e, 0xb9, 0xbd, 0x3f, 0x49, 0x30, 0xbe,
  0xff, 0xe7, 0x2c, 0xbe, 0xaa, 0x65, 0x5b, 0x3e, 0xd2, 0xda, 0xa6, 0xbd,
  0x29, 0x6d, 0x19, 0x3d, 0x5a, 0xf0, 0x2b, 0x3e, 0x79, 0xb2, 0x41, 0x3e,
  0x35, 0xe8, 0x7d, 0xbc, 0x57, 0x29, 0xca, 0xbd, 0xcb, 0xab, 0xd9, 0xbd,
  0xeb, 0x9d, 0x9e, 0xbd, 0x80, 0x22, 0x93, 0x3d, 0x9d, 0x47, 0x2b, 0x3e,
  0xec, 0xac, 0x6e, 0x3e, 0xea, 0x02, 0x1d, 0x3e, 0x48, 0x4f, 0x2a, 0xbe,
  0x5f, 0x96, 0x8a, 0x3c, 0x54, 0x98, 0x9a, 0x3d, 0x16, 0x50, 0x0b, 0x3e,
  0x16, 0x7e, 0x17, 0xbe, 0x17, 0x3e, 0x81, 0xbc, 0x9c, 0x88, 0x62, 0xbe,
  0x27, 0xf0, 0xda, 0xbd, 0x7a, 0x5a, 0x59, 0xbe, 0x2b, 0x5a, 0x1d, 0xbe,
  0x63, 0xc3, 0xdb, 0x3d, 0x80, 0xc8, 0xc6, 0x3d, 0x3a, 0x4a, 0xe2, 0xba,
  0x6c, 0xee, 0x17, 0x3e, 0x26, 0x67, 0x77, 0x3d, 0xc4, 0x3c, 0x91, 0xbd,
  0x23, 0x22, 0x40, 0x3d, 0xf2, 0x95, 0xea, 0x3d, 0x43, 0x99, 0x2f, 0x3d,
  0xdd, 0xaa, 0x59, 0xbe, 0x1a, 0x6c, 0x11, 0x3c, 0x6b, 0xf4, 0x30, 0xbd,
  0x28, 0x8e, 0xd5, 0x3e, 0x52, 0x9a, 0xf1, 0x3d, 0x50, 0x44, 0x5a, 0xbe,
  0xdd, 0x50, 0xf1, 0xbd, 0xfa, 0xa2, 0x9e, 0xbc, 0x25, 0x1c, 0x9f, 0xbd,
  0xc6, 0x5c, 0x4c, 0xbd, 0x6d, 0x19, 0xeb, 0xbd, 0x81, 0x63, 0x8a, 0x3c,
  0x45, 0x22, 0x9e, 0x3d, 0xe0, 0xff, 0x03, 0xbe, 0x5d, 0x34, 0xb0, 0x3c,
  0x3b, 0xa1, 0xe6, 0x3b, 0xf7, 0xdb, 0xa4, 0x3d, 0xd9, 0x1a, 0x85, 0xbd,
  0x90, 0x6c, 0x3d, 0xbe, 0x82, 0x33, 0x77, 0xbe, 0xb2, 0x70, 0x33, 0xbc,
  0xb9, 0x08, 0xd8, 0x3c, 0x0e, 0x3b, 0x35, 0x3c, 0xf9, 0xa9, 0x27, 0x3c,
  0x96, 0x21, 0x67, 0x3c, 0x49, 0xcc, 0xaf, 0x3d, 0xfd, 0x44, 0x8b, 0xbd,
  0x69, 0x27, 0xfc, 0xbd, 0xf4, 0xd4, 0xd6, 0xbd, 0x7f, 0x05, 0x2c, 0x3e,
  0x82, 0x37, 0x26, 0xbe, 0x92, 0x00, 0x66, 0x3d, 0xa0, 0x1e, 0x8f, 0x3d,
  0x95, 0x93, 0x06, 0xbe, 0x98, 0x5d, 0x9e, 0xbe, 0x6c, 0xcc, 0xcf, 0x3b,
  0xf2, 0x87, 0x5e, 0x3c, 0x7b, 0x52, 0xc1, 0xbe, 0xec, 0x93, 0x9d, 0xbd,
  0xcd, 0x5d, 0xcb, 0x3c, 0x36, 0xb5, 0x34, 0x3d, 0xb8, 0x0e, 0x55, 0xbe,
  0xf9, 0xd6, 0xd2, 0x3c, 0x12, 0xa5, 0xda, 0x3d, 0x8e, 0x14, 0x87, 0x3d,
  0xba, 0x36, 0x37, 0xbe, 0xf0, 0x3e, 0x07, 0x3e, 0x0e, 0xd0, 0x27, 0xbe,
  0xc7, 0x0d, 0x1a, 0x3e, 0xec, 0xb1, 0x88, 0xbd, 0x7c, 0x23, 0xb9, 0xbd,
  0xa3, 0xb4, 0x95, 0xbe, 0xfa, 0x6f, 0xa4, 0xbd, 0x41, 0x63, 0x8f, 0x3d,
  0xc9, 0x36, 0xcc, 0xbd, 0x9c, 0x45, 0x21, 0xbd, 0x29, 0x25, 0x2c, 0xbe,
  0x03, 0x8e, 0xb1, 0x3c, 0x3a, 0x4b, 0x27, 0x3d, 0xb4, 0x83, 0xaa, 0xbc,
  0xbb, 0xd6, 0x95, 0x3c, 0xf0, 0x63, 0x61, 0xbe, 0xa5, 0xcf, 0x8f, 0xbe,
  0xbb, 0x0a, 0xdf, 0xbd, 0x33, 0x76, 0xd4, 0x3c, 0x7c, 0x4d, 0x42, 0xbd,
  0x73, 0x66, 0x09, 0xbd, 0xd0, 0x34, 0xa7, 0xbd, 0x6d, 0xc3, 0xea, 0x3d,
  0x30, 0x0d, 0x4c, 0xbd, 0xc5, 0x00, 0x9f, 0xbe, 0xb6, 0x29, 0x8d, 0xba,
  0x6e, 0x52, 0x8a, 0x3c, 0xd9, 0x33, 0x97, 0x3d, 0x17, 0x4b, 0x2d, 0xbe,
  0xc1, 0x62, 0x7c, 0x3d, 0x2c, 0xc6, 0xa8, 0xbb, 0xda, 0xf6, 0x8a, 0xbd,
  0xa9, 0x01, 0x0b, 0xbf, 0xee, 0xff, 0x24, 0x3e, 0x4f, 0x4a, 0x0f, 0xbe,
  0xdb, 0xeb, 0xe3, 0x3c, 0x08, 0xef, 0x9c, 0xbe, 0xf5, 0x26, 0xdd, 0x3d,
  0x0f, 0x4a, 0x7c, 0xbe, 0x18, 0xa7, 0xbe, 0x3d, 0x80, 0xae, 0x29, 0x3c,
  0x3b, 0x3c, 0x18, 0xbe, 0xf5, 0xf9, 0xb0, 0xbc, 0xdc, 0x01, 0x58, 0x3b,
  0x53, 0x5a, 0x1b, 0xbe, 0xd6, 0x79, 0xcf, 0x3a, 0xbc, 0xe2, 0x23, 0x3e,
  0x5f, 0x72, 0x1a, 0xbe, 0xe1, 0xfb, 0x0d, 0xbe, 0x2b, 0x21, 0xa1, 0xbb,
  0x80, 0x41, 0x46, 0x3e, 0xfa, 0x9e, 0x23, 0x3e, 0xdc, 0x25, 0x44, 0xbe,
  0x97, 0xc9, 0xc1, 0x3c, 0x25, 0x41, 0x49, 0x3d, 0x49, 0xf1, 0x13, 0x3e,
  0x2b, 0xcd, 0x96, 0x3d, 0x0b, 0x85, 0x82, 0xbd, 0x43, 0xb5, 0x71, 0xbd,
  0xd2, 0x3a, 0xd6, 0x3d, 0x8a, 0x52, 0xbc, 0x3c, 0x99, 0xdf, 0x6e, 0xbe,
  0xb9, 0xe8, 0x1c, 0xbe, 0x48, 0x47, 0x35, 0xbe, 0xb5, 0xe8, 0x5f, 0x3e,
  0xad, 0xde, 0x51, 0x3e, 0xbd, 0x59, 0xe0, 0x3d, 0x02, 0x5e, 0xc9, 0xbd,
  0x60, 0x0d, 0x94, 0xbe, 0x2d, 0xbe, 0x26, 0xbd, 0x10, 0x70, 0x05, 0x3d,
  0x88, 0x94, 0x1c, 0xbb, 0xde, 0x1c, 0x5e, 0x3e, 0xba, 0x70, 0xb7, 0x3d,
  0x2e, 0x88, 0xca, 0xbc, 0x87, 0x72, 0x74, 0xbe, 0xaa, 0xa3, 0x85, 0xbe,
  0x62, 0x23, 0xba, 0xbc, 0xa0, 0x63, 0x4c, 0xbd, 0xf7, 0x55, 0xa6, 0x3d,
  0x94, 0x78, 0x8b, 0x3e, 0x18, 0x63, 0x0e, 0xbc, 0x7b, 0x4b, 0x81, 0x3e,
  0x95, 0xa7, 0x76, 0xbd, 0x2b, 0xdd, 0x52, 0xbe, 0xba, 0x93, 0xa8, 0x3d,
  0x1d, 0xa8, 0xbf, 0xbc, 0xa1, 0x09, 0x56, 0x3e, 0x33, 0xca, 0xda, 0xbd,
  0x42, 0xb7, 0x92, 0x3b, 0x08, 0xc7, 0x0b, 0x3d, 0x93, 0x3b, 0x2f, 0xbe,
  0x85, 0x8a, 0x38, 0xbe, 0xeb, 0x56, 0x18, 0xbc, 0x25, 0x32, 0x50, 0xbe,
  0xd1, 0xf5, 0xec, 0xbd, 0x64, 0xab, 0x90, 0xbd, 0x75, 0x11, 0x4a, 0xbe,
  0x6a, 0xfb, 0xae, 0x3d, 0x9c, 0x66, 0x00, 0x3e, 0xe8, 0x8f, 0x1d, 0x3c,
  0xf3, 0x53, 0x92, 0x3e, 0x2e, 0xab, 0xd7, 0xbd, 0x3b, 0x2a, 0x7e, 0xbe,
  0x03, 0xf4, 0xb8, 0xbd, 0xc0, 0x03, 0x4a, 0xbe, 0x92, 0xd2, 0x18, 0x3e,
  0x7f, 0xc0, 0x3a, 0xbe, 0xb3, 0xf9, 0xe2, 0xbd, 0xfd, 0xbb, 0xdc, 0x3d,
  0xcb, 0x60, 0x0b, 0xbe, 0x70, 0x66, 0x1b, 0xbc, 0xf6, 0x64, 0x39, 0xbd,
  0x8d, 0x0f, 0x52, 0x3d, 0xb1, 0x70, 0x8b, 0x3e, 0x7f, 0xa5, 0xb6, 0x3d,
  0x2b, 0x89, 0x46, 0xbe, 0xa7, 0xaa, 0xdf, 0x3d, 0x30, 0x06, 0x3f, 0xba,
  0xe0, 0x86, 0xa6, 0x3d, 0xea, 0x57, 0x8d, 0xbd, 0xf6, 0xfe, 0x7b, 0xbe,
  0xf8, 0x51, 0x66, 0x3e, 0x43, 0xcc, 0x1a, 0x3e, 0xd3, 0xae, 0x2a, 0xbe,
  0x65, 0x7a, 0xfe, 0x3d, 0x02, 0x2c, 0x08, 0xbe, 0x7e, 0x23, 0x36, 0x3c,
  0x2d, 0xf1, 0x82, 0x3e, 0x3b, 0xfa, 0xae, 0x3d, 0xcf, 0xd1, 0x25, 0x3e,
  0x4e, 0xd7, 0xb4, 0x3d, 0x95, 0x6d, 0xf4, 0xbd, 0x3e, 0x99, 0xf3, 0x3c,
  0xbe, 0x72, 0x75, 0x3e, 0x77, 0x78, 0x09, 0x3d, 0xbd, 0x85, 0x82, 0xbd,
  0x17, 0xf6, 0x53, 0x3c, 0x47, 0xcb, 0x75, 0x3e, 0x5a, 0xf1, 0x4c, 0xbe,
  0x81, 0x44, 0x7e, 0xbd, 0x2a, 0xec, 0x02, 0xbe, 0x52, 0x10, 0xb7, 0x3c,
  0x1b, 0xb4, 0x09, 0xbe, 0x7c, 0x58, 0xc1, 0xbd, 0x93, 0xae, 0x93, 0xbb,
  0x48, 0xf1, 0x50, 0xbc, 0x88, 0x2f, 0x2e, 0xbe, 0xcb, 0xa1, 0x85, 0xbe,
  0x41, 0x0d, 0xc3, 0xbc, 0xf6, 0xd9, 0x41, 0xbb, 0xe2, 0x17, 0xcd, 0xbd,
  0x5d, 0x69, 0x13, 0xbe, 0x6f, 0x41, 0xb9, 0xbe, 0x62, 0xf0, 0x3d, 0xbd,
  0x98, 0x98, 0x01, 0xbc, 0xfd, 0x1a, 0x31, 0x3e, 0xfa, 0x89, 0x3f, 0xbe,
  0x03, 0x27, 0x91, 0xbd, 0x87, 0x21, 0xa2, 0xbc, 0x04, 0x22, 0xc1, 0x3d,
  0x0f, 0xd4, 0x0c, 0x3e, 0x44, 0x85, 0x69, 0x3d, 0xb7, 0xad, 0xed, 0x3d,
  0x36, 0x1e, 0xb6, 0x3d, 0x0f, 0x2f, 0xdf, 0xbc, 0x52, 0xf9, 0x10, 0xbe,
  0xfb, 0x77, 0xa2, 0xbe, 0x9e, 0xc3, 0x3b, 0x3d, 0x22, 0x0d, 0xd3, 0x3d,
  0xc9, 0x51, 0x81, 0x3d, 0xce, 0x18, 0x0f, 0xbc, 0xcd, 0xb7, 0xa2, 0xbd,
  0x0f, 0xcd, 0xba, 0xbc, 0x15, 0x75, 0xdb, 0x3d, 0x1f, 0x67, 0x91, 0xbd,
  0xde, 0x0c, 0x78, 0xbd, 0xf2, 0x79, 0x27, 0xbc, 0x1a, 0xf2, 0x33, 0x3e,
  0x43, 0xea, 0xa2, 0x3d, 0x48, 0x47, 0x87, 0xbe, 0xa5, 0xa4, 0xef, 0xba,
  0xb6, 0x15, 0x4c, 0xbe, 0xac, 0xa0, 0xaf, 0xbd, 0xa1, 0xf9, 0x57, 0xbe,
  0xb1, 0xf8, 0x96, 0xbe, 0xa1, 0x76, 0xcb, 0x3c, 0xd0, 0x28, 0x67, 0xbd,
  0xee, 0x77, 0x43, 0xbe, 0xcf, 0xfc, 0x51, 0xbd, 0x98, 0x91, 0xf3, 0x3c,
  0xae, 0xfa, 0x58, 0xbd, 0xfa, 0x5f, 0x25, 0xbc, 0x07, 0x86, 0xda, 0xbe,
  0x98, 0x7e, 0x10, 0xbe, 0x5d, 0x98, 0x6f, 0xbd, 0xa8, 0x73, 0xa1, 0x3d,
  0xa5, 0x1f, 0xa0, 0xbe, 0x8c, 0x66, 0xf2, 0x3d, 0xcc, 0x0a, 0xc6, 0xbd,
  0x13, 0x70, 0xef, 0xbd, 0x54, 0xa0, 0xec, 0xbe, 0x5f, 0xd0, 0x3b, 0xbe,
  0x6b, 0xc0, 0x05, 0xbe, 0xa9, 0x06, 0x8a, 0x3e, 0x0c, 0x4a, 0x36, 0xbc,
  0xdd, 0x66, 0xae, 0xbd, 0x77, 0x0f, 0xf6, 0x3d, 0xf5, 0xef, 0xd2, 0xbe,
  0xd2, 0xb1, 0x75, 0xbe, 0xe0, 0x22, 0xc2, 0x3c, 0xca, 0x8f, 0xa8, 0xbe,
  0xbe, 0x50, 0xa6, 0x3c, 0x78, 0x77, 0x3d, 0x3d, 0x71, 0xd0, 0x8a, 0xbe,
  0x82, 0x6e, 0xd4, 0xbc, 0xc7, 0xd6, 0x03, 0xbe, 0xbe, 0x1d, 0x75, 0xbd,
  0x41, 0xdc, 0xf1, 0x3d, 0x50, 0xc5, 0x99, 0xbe, 0x50, 0x30, 0x3d, 0x3b,
  0x32, 0x5c, 0x8c, 0xbd, 0xe1, 0x2a, 0x68, 0xbe, 0xa8, 0x80, 0x80, 0x3d,
  0x59, 0x55, 0xe6, 0xbe, 0x2a, 0x81, 0x92, 0x3d, 0x11, 0x2e, 0xa6, 0x3d,
  0x6d, 0xa0, 0x4e, 0xbc, 0x68, 0x1a, 0x50, 0xbe, 0x64, 0xdd, 0x85, 0xbe,
  0x58, 0x67, 0x9d, 0xbc, 0x62, 0xdc, 0x64, 0xbe, 0xef, 0xa1, 0x6a, 0x3d,
  0xad, 0xa6, 0xac, 0xbe, 0x76, 0x1e, 0xaf, 0x3c, 0x68, 0x85, 0x49, 0x3d,
  0xb9, 0x4e, 0x26, 0x3e, 0x7c, 0x7a, 0x19, 0xbe, 0x4f, 0x06, 0x60, 0xbe,
  0x54, 0x47, 0xb2, 0xbe, 0x1f, 0xfb, 0xa5, 0xbd, 0xd1, 0x88, 0x5d, 0x3d,
  0x4e, 0xa1, 0x08, 0xbc, 0x44, 0x83, 0xd3, 0x3d, 0xd8, 0xc3, 0x5c, 0x3d,
  0x35, 0x51, 0x57, 0xbd, 0x83, 0xc1, 0x72, 0xbb, 0xd5, 0x15, 0x53, 0xbe,
  0x8f, 0x29, 0xc1, 0xbd, 0x9f, 0x32, 0x9f, 0x3d, 0x73, 0x45, 0x6d, 0x3d,
  0x94, 0xf6, 0xf7, 0x3d, 0x47, 0xdc, 0x18, 0x3e, 0x79, 0xb7, 0xee, 0xbb,
  0x4a, 0x1e, 0x2b, 0x3e, 0x90, 0xe5, 0x4f, 0xbd, 0x1e, 0x5d, 0xdc, 0x3d,
  0x98, 0x6c, 0x43, 0xbe, 0x46, 0xd9, 0xa3, 0x3c, 0xbd, 0x6a, 0xb8, 0x3d,
  0xb5, 0x91, 0x65, 0xbd, 0x0a, 0x4e, 0x89, 0xbd, 0x2c, 0x2b, 0xce, 0xbd,
  0xc5, 0x36, 0xa1, 0xbc, 0x06, 0xd1, 0xe2, 0xbc, 0xe9, 0xea, 0x08, 0xbe,
  0x1c, 0x99, 0xd8, 0x3c, 0x10, 0xc9, 0xea, 0xbd, 0xce, 0xac, 0xbd, 0x3d,
  0x92, 0x40, 0x11, 0xbe, 0x72, 0x0a, 0x0b, 0xbe, 0x81, 0x9a, 0x9a, 0x3e,
  0x66, 0xa0, 0x66, 0xbe, 0x96, 0x12, 0x93, 0xbe, 0xda, 0x8e, 0x2e, 0x3d,
  0x64, 0xd9, 0x79, 0x3e, 0xdc, 0xdd, 0x3b, 0x3d, 0x2f, 0x1b, 0xa0, 0xbe,
  0x8d, 0x89, 0x89, 0xbd, 0xa9, 0x1c, 0x47, 0x3d, 0x36, 0x4f, 0xc2, 0x3d,
  0x8a, 0xd9, 0x84, 0x3e, 0xe0, 0x84, 0x4a, 0xbd, 0x72, 0x27, 0xe4, 0x3d,
  0x9b, 0x6c, 0xa1, 0xbe, 0x71, 0x09, 0x64, 0x3d, 0x6d, 0x68, 0xdf, 0x3d,
  0x39, 0x50, 0xcf, 0x3c, 0xfa, 0xb7, 0xd3, 0xbd, 0x72, 0x94, 0xea, 0xbc,
  0x89, 0xc9, 0x07, 0xbe, 0xa1, 0xce, 0xf9, 0x3d, 0xcd, 0x40, 0x0a, 0xbe,
  0x82, 0x2d, 0x15, 0xbd, 0xd1, 0x29, 0xc7, 0x3d, 0x50, 0xef, 0x2d, 0x3d,
  0x30, 0x3c, 0x55, 0xbe, 0xff, 0xb2, 0x25, 0xbe, 0x62, 0x30, 0xe1, 0xbe,
  0x80, 0x7a, 0xbc, 0x3d, 0x4a, 0x90, 0xa9, 0xbd, 0x4b, 0xf1, 0xbc, 0xbc,
  0x09, 0x36, 0x2a, 0x3e, 0x00, 0x6a, 0x58, 0x3e, 0x23, 0x8a, 0xb6, 0xbe,
  0xbb, 0x32, 0x11, 0xbc, 0x80, 0x21, 0xd1, 0xbe, 0x4f, 0x2b, 0x8c, 0xbc,
  0x5e, 0x9a, 0x9b, 0xbd, 0x40, 0x48, 0xc2, 0xbd, 0xb1, 0x96, 0xb4, 0x3d,
  0x85, 0xa8, 0x5f, 0xbd, 0xd8, 0xec, 0x87, 0xbd, 0xb4, 0xcf, 0xb4, 0xbb,
  0x1e, 0x09, 0xdf, 0x3c, 0x5c, 0xfe, 0x89, 0xbe, 0x38, 0xfc, 0x0e, 0x3e,
  0x76, 0x5c, 0x51, 0xbd, 0x62, 0x04, 0xbd, 0x3c, 0x67, 0xf3, 0x1a, 0xbe,
  0xd8, 0xa6, 0x83, 0xbd, 0xc8, 0x0e, 0x95, 0xbe, 0x90, 0x79, 0xee, 0xbd,
  0x69, 0xb6, 0x9c, 0xbe, 0x0d, 0x27, 0x17, 0x3e, 0x09, 0x41, 0x87, 0xbd,
  0x5f, 0x65, 0xcc, 0x3c, 0x08, 0xe2, 0x7a, 0x3d, 0xa4, 0x48, 0x2e, 0xbe,
  0xf7, 0xbc, 0x69, 0x3d, 0xeb, 0x33, 0xac, 0xbe, 0x14, 0x26, 0x9a, 0x3d,
  0xe8, 0xbb, 0x0f, 0x3e, 0xfd, 0x16, 0x30, 0x3e, 0x83, 0x67, 0xf6, 0xbd,
  0x6e, 0x6e, 0x4f, 0xbd, 0x67, 0x32, 0xf8, 0x3d, 0xd0, 0x48, 0x72, 0xbe,
  0xa5, 0x4b, 0x4c, 0xbc, 0x21, 0x0b, 0x53, 0xbe, 0x67, 0x73, 0x36, 0x3d,
  0x82, 0x16, 0x5e, 0x3e, 0x2f, 0xe4, 0xe1, 0xbd, 0x19, 0xcc, 0x4d, 0xbe,
  0xfe, 0x90, 0xb6, 0x3d, 0xe7, 0xdd, 0xc0, 0xbd, 0xe5, 0x07, 0xdb, 0x3c,
  0x91, 0x86, 0xe2, 0xbc, 0x58, 0x40, 0xc5, 0x3d, 0x15, 0xc3, 0x8b, 0x3d,
  0x25, 0x5f, 0xce, 0x3a, 0xe2, 0xa5, 0xe0, 0xbd, 0xf1, 0x9a, 0x2f, 0x3e,
  0x7e, 0x20, 0x36, 0x3e, 0xec, 0x9c, 0xf2, 0x3c, 0x7e, 0x24, 0x39, 0x3e,
  0x14, 0x51, 0xad, 0x3d, 0x48, 0x75, 0x28, 0xbe, 0x1d, 0xd7, 0x36, 0xbe,
  0xd8, 0xb6, 0xd3, 0x3c, 0x47, 0xdb, 0xa1, 0x3d, 0x5b, 0x3e, 0x1e, 0x3d,
  0x77, 0x9a, 0x40, 0xba, 0x02, 0x7d, 0xc2, 0x3d, 0xf3, 0x5f, 0x0e, 0xbd,
  0x31, 0x55, 0xac, 0xbe, 0xbd, 0x97, 0x2a, 0xbe, 0x6f, 0x9a, 0x0f, 0xbe,
  0x00, 0x3e, 0x05, 0x3e, 0x8d, 0xa5, 0xb1, 0xbd, 0xef, 0x40, 0x25, 0x3e,
  0xfd, 0xb7, 0x54, 0xbc, 0xf7, 0x7e, 0x18, 0xbe, 0x7d, 0x30, 0x3b, 0xbe,
  0xa9, 0x7e, 0xa3, 0xbc, 0x0f, 0x11, 0xfd, 0xbb, 0xd4, 0x8e, 0xf4, 0xbd,
  0xeb, 0xed, 0x18, 0x3e, 0x09, 0x27, 0xf6, 0x3b, 0x3e, 0x5f, 0x35, 0x3d,
  0x16, 0xaf, 0x4b, 0x3d, 0x92, 0x5c, 0x7e, 0x3e, 0xde, 0x5f, 0x30, 0xbe,
  0x7c, 0xae, 0x90, 0xbd, 0xa1, 0xaf, 0x40, 0x3e, 0xa2, 0xb7, 0x8c, 0x3d,
  0x76, 0x4a, 0x0c, 0xbe, 0x38, 0xf2, 0x74, 0x3d, 0x2d, 0x60, 0x39, 0xbe,
  0x6a, 0x6d, 0x80, 0x3e, 0x4b, 0x8e, 0x7e, 0x3e, 0x9f, 0x92, 0x2f, 0x3d,
  0x32, 0xeb, 0xdf, 0x3c, 0x31, 0xdc, 0x68, 0xbe, 0x7e, 0x07, 0x1c, 0xbe,
  0x07, 0x08, 0xcf, 0x3d, 0x97, 0x06, 0x7b, 0xbd, 0x5a, 0xc4, 0x4b, 0x3d,
  0x4a, 0xa7, 0x88, 0xbd, 0x3b, 0x7f, 0x49, 0x3a, 0x51, 0xa0, 0x84, 0x3c,
  0x8c, 0x97, 0x41, 0x3d, 0x8f, 0x5d, 0x5b, 0x3d, 0xb6, 0xa9, 0xb0, 0xbd,
  0x2a, 0xd9, 0xc8, 0xbd, 0xb9, 0xb3, 0xba, 0xbd, 0xc7, 0x97, 0xa9, 0x3c,
  0xc9, 0xf1, 0x2b, 0xbe, 0x6b, 0x3e, 0x44, 0xbe, 0xa9, 0xba, 0xd2, 0x3d,
  0x7b, 0xc6, 0xb6, 0xbb, 0xd4, 0x4c, 0x93, 0x3e, 0x2b, 0xee, 0xb3, 0xbc,
  0xaf, 0x22, 0xdc, 0xbc, 0xfa, 0xf1, 0x1c, 0x3e, 0x9e, 0x73, 0x47, 0x3b,
  0x24, 0x06, 0x96, 0xbe, 0x57, 0x18, 0xff, 0xbc, 0x79, 0x92, 0x05, 0xbe,
  0x7e, 0x5f, 0x5a, 0xbe, 0x39, 0x4a, 0x2d, 0xbe, 0x27, 0xba, 0x04, 0xbe,
  0xc3, 0x67, 0xf3, 0xbc, 0xac, 0xbf, 0xa0, 0x3c, 0x5a, 0xa0, 0xd0, 0xbe,
  0x97, 0xd7, 0xe0, 0x3a, 0x31, 0xe7, 0xd0, 0xbc, 0x68, 0x6e, 0x16, 0xbe,
  0xdb, 0x9d, 0xab, 0xbd, 0xa0, 0x22, 0x95, 0x3b, 0x47, 0xa4, 0xeb, 0xbc,
  0x8a, 0x32, 0x24, 0x3e, 0x2e, 0x13, 0x54, 0xbd, 0x4d, 0x1d, 0xc3, 0xbd,
  0xf9, 0x02, 0x05, 0xbc, 0x10, 0x4a, 0x96, 0x3c, 0x1f, 0x63, 0x99, 0x3b,
  0x81, 0x92, 0x0f, 0x3e, 0x89, 0xf1, 0x0f, 0x3e, 0xca, 0xa4, 0x03, 0xbe,
  0x15, 0x34, 0x02, 0xbe, 0x3f, 0x96, 0x75, 0x3d, 0xcd, 0x61, 0x56, 0xbd,
  0xb7, 0x45, 0x56, 0x3d, 0x5a, 0x7c, 0x5d, 0x3d, 0xaa, 0xf9, 0xff, 0xff,
  0x04, 0x00, 0x00, 0x00, 0x20, 0x01, 0x00, 0x00, 0x29, 0x89, 0x54, 0x3e,
  0xad, 0x9f, 0xe4, 0xbc, 0xfa, 0x80, 0x88, 0xbe, 0xf5, 0x14, 0xfc, 0xbd,
  0x6e, 0x17, 0x4a, 0xbe, 0x99, 0x71, 0x69, 0x3e, 0xdc, 0xe8, 0x0e, 0x3e,
  0xdf, 0x45, 0x27, 0x3d, 0xa9, 0xb0, 0xfd, 0xbd, 0x70, 0x3f, 0xeb, 0xbb,
  0xde, 0xc6, 0xda, 0xbd, 0x14, 0xc4, 0x5d, 0xbd, 0x10, 0x74, 0xa3, 0x3e,
  0xa5, 0x92, 0xab, 0x3b, 0xed, 0x2a, 0x99, 0xbe, 0x2e, 0x08, 0x7f, 0x3e,
  0x59, 0x75, 0x1e, 0xbd, 0xec, 0xee, 0x19, 0xbe, 0x47, 0x2e, 0xda, 0x3d,
  0xf1, 0x58, 0x27, 0xbc, 0x7c, 0xeb, 0xf0, 0x3d, 0xaf, 0xeb, 0x82, 0x3e,
  0xf7, 0x52, 0x78, 0x3d, 0x01, 0xa9, 0xc4, 0xbd, 0x50, 0xec, 0x12, 0x3d,
  0x83, 0xb2, 0xc5, 0x3d, 0xd5, 0x23, 0xaa, 0x3d, 0x8f, 0x48, 0x91, 0xbe,
  0x1f, 0xe6, 0x8a, 0x3d, 0xea, 0x89, 0x5f, 0x3e, 0x14, 0x07, 0x60, 0xbe,
  0x79, 0xd1, 0x8c, 0xbd, 0x6f, 0x05, 0xa0, 0x3e, 0x0e, 0x46, 0xaf, 0xbe,
  0x94, 0x30, 0x67, 0x3e, 0x21, 0x6f, 0x13, 0x3e, 0x2d, 0x95, 0x8d, 0xbc,
  0x55, 0x42, 0x2b, 0x3e, 0xdc, 0xd9, 0xc8, 0xbd, 0x22, 0x0d, 0xe2, 0xbd,
  0xd6, 0x9d, 0x1d, 0x3d, 0x3e, 0x33, 0x4a, 0x3e, 0xa7, 0x25, 0x85, 0xbe,
  0x71, 0xe8, 0x36, 0xbd, 0x9b, 0xd6, 0x0d, 0x3e, 0x04, 0x07, 0xbe, 0xbd,
  0xbc, 0x54, 0x00, 0xbe, 0x97, 0xa4, 0x2b, 0x3d, 0x67, 0xa5, 0x6d, 0xbe,
  0x0d, 0xed, 0x44, 0xbe, 0xc7, 0x55, 0xa9, 0x3e, 0x21, 0x94, 0x93, 0x3d,
  0x22, 0xeb, 0x22, 0xbc, 0xb0, 0xd4, 0x16, 0x3d, 0x0a, 0xd1, 0x85, 0xbe,
  0xfc, 0x9e, 0xa2, 0x3d, 0x77, 0x55, 0x5c, 0x3e, 0xe9, 0xc5, 0x18, 0x3e,
  0xd9, 0xf8, 0xf0, 0xbd, 0xfe, 0x19, 0x65, 0xbe, 0x88, 0x2e, 0x88, 0xbe,
  0xc0, 0xea, 0x50, 0x3d, 0xb2, 0x8b, 0x31, 0x3e, 0x9e, 0xae, 0x62, 0xbe,
  0xa4, 0x16, 0x07, 0x3d, 0x7b, 0x56, 0xe0, 0x3d, 0xf5, 0x5d, 0xa1, 0x3e,
  0x56, 0x85, 0x28, 0xbe, 0xb6, 0x7e, 0x82, 0xbe, 0x31, 0x07, 0x59, 0x3e,
  0xbb, 0x62, 0xa6, 0xbd, 0xd1, 0xf6, 0x86, 0xbe, 0xd6, 0xfa, 0xff, 0xff,
  0x04, 0x00, 0x00, 0x00, 0x20, 0x00, 0x00, 0x00, 0xc1, 0x8e, 0x97, 0xbd,
  0x0d, 0xe2, 0x83, 0xbd, 0xfc, 0x5a, 0xea, 0xbe, 0x8b, 0xc8, 0x96, 0xbe,
  0xb9, 0x60, 0xb5, 0xbe, 0xff, 0x60, 0x10, 0xbf, 0xa9, 0x83, 0x29, 0xbf,
  0x9e, 0x6a, 0xc3, 0xbc, 0x02, 0xfb, 0xff, 0xff, 0x04, 0x00, 0x00, 0x00,
  0x20, 0x00, 0x00, 0x00, 0xe2, 0x88, 0x4b, 0x3e, 0x15, 0x0d, 0xec, 0xbe,
  0x28, 0x37, 0x50, 0xbe, 0xed, 0x08, 0xe0, 0xbc, 0x78, 0x98, 0x2a, 0xbe,
  0xb7, 0x5f, 0xef, 0xbd, 0xd3, 0x7c, 0x84, 0xbe, 0x3c, 0x6e, 0x14, 0x3e,
  0x2e, 0xfb, 0xff, 0xff, 0x04, 0x00, 0x00, 0x00, 0x20, 0x00, 0x00, 0x00,
  0x7b, 0x2e, 0xae, 0xbd, 0x32, 0x26, 0x91, 0xbd, 0x89, 0x0b, 0x29, 0xbd,
  0x73, 0xd0, 0x88, 0x3d, 0x5b, 0x9d, 0x20, 0x3e, 0x62, 0xb0, 0x19, 0x3e,
  0x85, 0x60, 0xa8, 0x3c, 0x2c, 0xbb, 0x1a, 0x3e, 0x5a, 0xfb, 0xff, 0xff,
  0x04, 0x00, 0x00, 0x00, 0x00, 0x04, 0x00, 0x00, 0xab, 0x03, 0x3c, 0x3e,
  0x7a, 0x70, 0x0f, 0x3e, 0x0f, 0x90, 0x8b, 0x3e, 0x83, 0x73, 0xce, 0xbc,
  0x9a, 0xc1, 0x16, 0xbd, 0x76, 0x2d, 0x93, 0x3e, 0x6c, 0x1b, 0x16, 0x3d,
  0x41, 0x3c, 0x25, 0xbe, 0xe8, 0xa5, 0xf1, 0xbb, 0xd6, 0x91, 0xbe, 0x3d,
  0x59, 0x6b, 0x0c, 0x3f, 0xe6, 0x21, 0xb5, 0xbe, 0x59, 0xbe, 0x40, 0xbc,
  0xbb, 0xf3, 0x0c, 0xbe, 0xab, 0x68, 0x88, 0x3e, 0xb3, 0xb2, 0x39, 0x3e,
  0x96, 0xc6, 0xb5, 0x3e, 0xae, 0xaa, 0x66, 0xbe, 0x36, 0x10, 0x91, 0x3e,
  0x8d, 0xad, 0xd0, 0x3c, 0x41, 0xa7, 0x7f, 0xbe, 0xfa, 0xab, 0xa0, 0x3e,
  0xfd, 0x24, 0x75, 0x3d, 0x04, 0x1d, 0xc3, 0xbc, 0x19, 0x0a, 0x48, 0xbe,
  0x69, 0x51, 0xf7, 0x3d, 0xf8, 0x20, 0x3b, 0xbe, 0xdd, 0x19, 0x9b, 0xbe,
  0xea, 0xda, 0x91, 0x3e, 0xbc, 0xe2, 0x38, 0x3e, 0x61, 0x6c, 0x57, 0x3e,
  0x07, 0x82, 0xdd, 0x3e, 0xa5, 0x65, 0x59, 0xbd, 0x5d, 0x46, 0x8e, 0x3e,
  0xf9, 0xc7, 0x79, 0xbe, 0xcb, 0xc7, 0x9b, 0xbe, 0x19, 0x31, 0x8f, 0x3e,
  0x05, 0x43, 0x57, 0xbe, 0xbd, 0xc7, 0x2d, 0x3e, 0x87, 0xb3, 0xe2, 0x3e,
  0x46, 0xd7, 0x4b, 0x3e, 0xa2, 0x01, 0x7a, 0x3e, 0xca, 0xc1, 0x95, 0x3e,
  0x71, 0x1c, 0x64, 0xbe, 0x49, 0x1b, 0x8e, 0x3d, 0x1e, 0xff, 0xfe, 0x3d,
  0x98, 0x0c, 0xa3, 0x3b, 0xc5, 0x26, 0x15, 0x3e, 0xee, 0x3a, 0x94, 0xbe,
  0x5c, 0x58, 0x44, 0xbe, 0x0f, 0xae, 0xcb, 0x3d, 0xea, 0x0c, 0x59, 0x3d,
  0xa0, 0xd7, 0xa4, 0xbe, 0xd9, 0xd2, 0x98, 0xbd, 0xdb, 0xa0, 0xac, 0x3e,
  0xda, 0x07, 0x30, 0x3e, 0x83, 0x39, 0xbb, 0xbc, 0x99, 0x60, 0xd3, 0xbd,
  0xf6, 0x8e, 0xf9, 0x3d, 0xe0, 0x0a, 0x4e, 0xbe, 0x6f, 0x43, 0x7a, 0xbd,
  0xe6, 0x9d, 0x82, 0xbe, 0x46, 0x78, 0x16, 0x3e, 0x6b, 0x83, 0xa5, 0xbe,
  0x99, 0x5d, 0xad, 0xbb, 0x87, 0xf0, 0x5e, 0xbd, 0xd8, 0xc3, 0x4b, 0x3e,
  0xc4, 0x3d, 0xcf, 0x3d, 0xd5, 0xe1, 0x09, 0x3d, 0x14, 0x67, 0x91, 0x3e,
  0x55, 0x31, 0x16, 0x3d, 0xe5, 0x41, 0x32, 0xbe, 0x78, 0xe6, 0x48, 0xbe,
  0xdb, 0x95, 0xb5, 0xbe, 0xfd, 0x21, 0x25, 0x3e, 0x1b, 0x47, 0xd1, 0xbe,
  0x6e, 0x9e, 0xbf, 0x3c, 0x97, 0x71, 0x22, 0x3e, 0xa0, 0x9b, 0x26, 0xbe,
  0x97, 0x32, 0x9e, 0xbe, 0x3d, 0x31, 0xc8, 0xbd, 0x70, 0xe9, 0xb6, 0xbd,
  0x57, 0x23, 0xd8, 0xbd, 0xd4, 0x6f, 0x58, 0xbe, 0x21, 0x8c, 0x89, 0xbc,
  0x2b, 0xa4, 0xa7, 0x3e, 0xa0, 0xa8, 0x87, 0x3e, 0xc3, 0x18, 0xeb, 0x3d,
  0x90, 0xdb, 0x77, 0xbc, 0x2e, 0xe9, 0x98, 0xbd, 0xb9, 0x36, 0x52, 0x3e,
  0x27, 0x73, 0x98, 0xbc, 0xa3, 0xb1, 0x10, 0x3e, 0xa9, 0xa5, 0xd5, 0x3d,
  0x45, 0x24, 0xe3, 0x3d, 0x59, 0x8f, 0x8a, 0xbe, 0x3a, 0x32, 0x26, 0xbc,
  0xae, 0xee, 0x4f, 0x3e, 0xd0, 0x97, 0x6e, 0xbe, 0xeb, 0x9d, 0xa8, 0x3d,
  0x7e, 0x89, 0x8c, 0x3e, 0x05, 0xd4, 0xec, 0x3d, 0x75, 0x84, 0x9a, 0xbd,
  0xb5, 0x17, 0x87, 0xbd, 0xa6, 0x79, 0x8d, 0xbe, 0x63, 0xd5, 0x14, 0x3c,
  0x4b, 0xe4, 0x64, 0xbe, 0xcd, 0x47, 0xa5, 0x3d, 0x10, 0x61, 0x84, 0xbe,
  0x69, 0x8a, 0xcb, 0xbe, 0xf4, 0x81, 0x6f, 0xbd, 0xa9, 0x86, 0xd4, 0xbe,
  0x3d, 0xee, 0x34, 0x3e, 0x55, 0x05, 0xc0, 0xbe, 0x84, 0x1c, 0x6d, 0xbd,
  0x2f, 0x52, 0x84, 0x3e, 0xe9, 0xfe, 0x3c, 0x3d, 0xc6, 0x29, 0xc7, 0x3e,
  0x45, 0xbe, 0x67, 0x3e, 0x3c, 0x86, 0x91, 0x3d, 0xb1, 0xc1, 0x4f, 0x3e,
  0xcf, 0xb8, 0x43, 0x3e, 0x4e, 0x47, 0x3a, 0xbd, 0x4a, 0xa7, 0x60, 0xbd,
  0x48, 0xb3, 0x93, 0xbe, 0x5c, 0x6c, 0xe2, 0x3d, 0xeb, 0x48, 0x3c, 0xbe,
  0x50, 0x6a, 0x0e, 0x3e, 0x15, 0x66, 0xe6, 0xbe, 0x0c, 0x9c, 0x99, 0x3e,
  0xed, 0x50, 0xf3, 0xbd, 0xb7, 0xc4, 0xdb, 0xbe, 0x94, 0x34, 0x97, 0xbd,
  0x12, 0xed, 0x92, 0x3e, 0x74, 0xf3, 0x33, 0xbe, 0xf3, 0xe3, 0xbe, 0xbe,
  0x63, 0x12, 0x42, 0x3e, 0x91, 0xad, 0xd9, 0x3d, 0x19, 0x25, 0x69, 0xbd,
  0x95, 0x2a, 0x0e, 0x3c, 0x53, 0xcc, 0x97, 0x3c, 0x77, 0x43, 0xfb, 0x3d,
  0x36, 0xef, 0x45, 0xbe, 0x61, 0xdd, 0xc6, 0x3d, 0x10, 0xe6, 0xff, 0xbd,
  0x3a, 0xf9, 0x70, 0xbe, 0xe5, 0x81, 0x2e, 0x3e, 0x61, 0x3d, 0x15, 0x3e,
  0xa3, 0x7d, 0xaf, 0xbd, 0x7c, 0x5c, 0xcc, 0x3d, 0xd1, 0x2e, 0x6b, 0x3e,
  0x35, 0xb9, 0xff, 0x3d, 0xd0, 0xb9, 0x09, 0x3e, 0x37, 0x18, 0x26, 0x3e,
  0x1e, 0x49, 0x26, 0x3e, 0x8e, 0xb6, 0x67, 0x3e, 0x96, 0xc0, 0x4b, 0x3d,
  0xec, 0x7f, 0x87, 0xbe, 0x78, 0x6e, 0x2c, 0xbe, 0x27, 0xef, 0x3e, 0xbe,
  0x54, 0xb8, 0x78, 0x3e, 0x3b, 0x64, 0xcc, 0xbe, 0x46, 0x6c, 0x30, 0x3e,
  0x2e, 0x1a, 0xac, 0x3d, 0x52, 0x1f, 0xf4, 0xbd, 0xb9, 0x66, 0x61, 0xbe,
  0x5c, 0xb2, 0x02, 0xbf, 0x7b, 0xbe, 0xba, 0xbd, 0x78, 0xd7, 0x7c, 0x3e,
  0xb0, 0x55, 0x24, 0xbd, 0x6e, 0x8f, 0x88, 0x3e, 0xf6, 0x64, 0x92, 0x3e,
  0xdd, 0xe5, 0x0f, 0x3c, 0xb9, 0xf1, 0xe0, 0x3c, 0x58, 0xd4, 0xa9, 0xbe,
  0xcd, 0xf7, 0x8d, 0xbe, 0xf5, 0x1b, 0x82, 0x3e, 0x96, 0x0b, 0xa3, 0xbb,
  0x34, 0x59, 0xa9, 0x3d, 0x3a, 0x24, 0x4b, 0xbe, 0x18, 0xba, 0xa1, 0x3c,
  0x72, 0x6e, 0x55, 0x3c, 0xb8, 0x8d, 0x15, 0x3d, 0x08, 0x36, 0x9f, 0xbe,
  0x56, 0x0d, 0x9f, 0x3e, 0x17, 0x57, 0x29, 0x3e, 0x5c, 0x6a, 0x31, 0xbe,
  0x04, 0xc8, 0xa4, 0xbe, 0x05, 0xdc, 0x1d, 0x3e, 0x97, 0x67, 0x0d, 0xbd,
  0xd8, 0x96, 0x36, 0x3e, 0x93, 0x8a, 0xdd, 0xbd, 0x2e, 0x6a, 0xa1, 0x3d,
  0x85, 0x38, 0xc6, 0xbc, 0xf3, 0xb7, 0x7d, 0x3e, 0x04, 0x14, 0xaf, 0xbd,
  0x12, 0xba, 0xe1, 0xbe, 0xd2, 0xe6, 0xb7, 0xbd, 0x0f, 0x63, 0x07, 0xbf,
  0x62, 0x84, 0x54, 0x3d, 0xd3, 0x9d, 0x62, 0x3e, 0x88, 0x96, 0x30, 0x3e,
  0xbb, 0xf0, 0x6b, 0x3d, 0x84, 0xa3, 0x08, 0x3d, 0xd4, 0x7f, 0xe9, 0x3e,
  0xdf, 0xac, 0x8f, 0xbe, 0xe7, 0x66, 0xa6, 0x3e, 0x55, 0xf9, 0x8e, 0x3e,
  0xf4, 0xb3, 0x70, 0x3d, 0x54, 0x10, 0x65, 0x3d, 0x6a, 0x47, 0x63, 0xbd,
  0x5c, 0x72, 0x2d, 0xbe, 0xa1, 0xa3, 0x8a, 0x3e, 0xa1, 0x79, 0x0e, 0xbe,
  0xec, 0x23, 0xac, 0x3c, 0x0b, 0xf9, 0x47, 0xbe, 0xcf, 0x2d, 0x6a, 0x3e,
  0x46, 0x9e, 0x29, 0xbe, 0xee, 0x27, 0x73, 0x3e, 0x8f, 0x8e, 0x96, 0x3d,
  0x13, 0x7d, 0x67, 0xbe, 0x18, 0xaa, 0x24, 0x3d, 0x2a, 0x97, 0x4f, 0xbd,
  0xfa, 0x1f, 0x96, 0x3d, 0xe5, 0x43, 0xf3, 0xbe, 0x01, 0xc0, 0x01, 0x3c,
  0xf4, 0xc5, 0xa9, 0x3d, 0xc9, 0xc6, 0x35, 0xbe, 0x83, 0x81, 0x0a, 0x3e,
  0xf3, 0x40, 0x63, 0xbe, 0xfe, 0x89, 0x15, 0x3e, 0x7a, 0x08, 0x68, 0xbe,
  0x2f, 0xbd, 0x62, 0x3e, 0x65, 0x07, 0xd0, 0xbe, 0x88, 0xc4, 0x9a, 0xbd,
  0xf0, 0x87, 0x0a, 0x3d, 0x88, 0xa1, 0x48, 0x3e, 0x87, 0xf3, 0xd8, 0x3d,
  0x31, 0xc0, 0xe8, 0xbc, 0x8d, 0xb5, 0x64, 0x3e, 0x6f, 0xa2, 0x80, 0xbd,
  0x3f, 0xce, 0x40, 0x3e, 0xc9, 0x65, 0x41, 0xbe, 0xf6, 0x11, 0x8a, 0x3e,
  0xa3, 0xa9, 0xf7, 0xbe, 0x5d, 0x23, 0xf4, 0xbe, 0xfb, 0x6a, 0x73, 0xbe,
  0xd9, 0x7a, 0x6c, 0x3e, 0xe9, 0x22, 0x90, 0xbe, 0x66, 0x07, 0x66, 0xbe,
  0x12, 0xb4, 0xd2, 0x3e, 0x52, 0x41, 0xee, 0x3d, 0x61, 0x10, 0xed, 0xbd,
  0x52, 0xdd, 0x92, 0x3e, 0xd9, 0x93, 0xc1, 0xbe, 0x0a, 0x1d, 0x15, 0x3e,
  0x00, 0xf3, 0xff, 0xff, 0x04, 0xf3, 0xff, 0xff, 0x0f, 0x00, 0x00, 0x00,
  0x4d, 0x4c, 0x49, 0x52, 0x20, 0x43, 0x6f, 0x6e, 0x76, 0x65, 0x72, 0x74,
  0x65, 0x64, 0x2e, 0x00, 0x01, 0x00, 0x00, 0x00, 0x14, 0x00, 0x00, 0x00,
  0x00, 0x00, 0x0e, 0x00, 0x18, 0x00, 0x14, 0x00, 0x10, 0x00, 0x0c, 0x00,
  0x08, 0x00, 0x04, 0x00, 0x0e, 0x00, 0x00, 0x00, 0x14, 0x00, 0x00, 0x00,
  0x1c, 0x00, 0x00, 0x00, 0x9c, 0x02, 0x00, 0x00, 0xa0, 0x02, 0x00, 0x00,
  0xa4, 0x02, 0x00, 0x00, 0x04, 0x00, 0x00, 0x00, 0x6d, 0x61, 0x69, 0x6e,
  0x00, 0x00, 0x00, 0x00, 0x09, 0x00, 0x00, 0x00, 0x34, 0x02, 0x00, 0x00,
  0xe0, 0x01, 0x00, 0x00, 0x8c, 0x01, 0x00, 0x00, 0x38, 0x01, 0x00, 0x00,
  0xf4, 0x00, 0x00, 0x00, 0xcc, 0x00, 0x00, 0x00, 0x78, 0x00, 0x00, 0x00,
  0x40, 0x00, 0x00, 0x00, 0x04, 0x00, 0x00, 0x00, 0x9e, 0xfe, 0xff, 0xff,
  0x1c, 0x00, 0x00, 0x00, 0x00, 0x00, 0x00, 0x09, 0x1c, 0x00, 0x00, 0x00,
  0x20, 0x00, 0x00, 0x00, 0x04, 0x00, 0x00, 0x00, 0x00, 0x00, 0x06, 0x00,
  0x08, 0x00, 0x04, 0x00, 0x06, 0x00, 0x00, 0x00, 0x00, 0x00, 0x80, 0x3f,
  0x01, 0x00, 0x00, 0x00, 0x14, 0x00, 0x00, 0x00, 0x01, 0x00, 0x00, 0x00,
  0x13, 0x00, 0x00, 0x00, 0xd6, 0xfe, 0xff, 0xff, 0x14, 0x00, 0x00, 0x00,
  0x00, 0x00, 0x00, 0x08, 0x10, 0x00, 0x00, 0x00, 0x14, 0x00, 0x00, 0x00,
  0x03, 0x00, 0x00, 0x00, 0xd0, 0xf3, 0xff, 0xff, 0x01, 0x00, 0x00, 0x00,
  0x13, 0x00, 0x00, 0x00, 0x03, 0x00, 0x00, 0x00, 0x12, 0x00, 0x00, 0x00,
  0x01, 0x00, 0x00, 0x00, 0x08, 0x00, 0x00, 0x00, 0x0a, 0xff, 0xff, 0xff,
  0x20, 0x00, 0x00, 0x00, 0x00, 0x00, 0x00, 0x08, 0x20, 0x00, 0x00, 0x00,
  0x24, 0x00, 0x00, 0x00, 0x03, 0x00, 0x00, 0x00, 0x0c, 0x00, 0x08, 0x00,
  0x07, 0x00, 0x00, 0x00, 0x00, 0x00, 0x06, 0x00, 0x0c, 0x00, 0x00, 0x00,
  0x00, 0x00, 0x01, 0x01, 0x01, 0x00, 0x00, 0x00, 0x12, 0x00, 0x00, 0x00,
  0x03, 0x00, 0x00, 0x00, 0x11, 0x00, 0x00, 0x00, 0x0b, 0x00, 0x00, 0x00,
  0x09, 0x00, 0x00, 0x00, 0x00, 0x00, 0x0a, 0x00, 0x10, 0x00, 0x0c, 0x00,
  0x08, 0x00, 0x04, 0x00, 0x0a, 0x00, 0x00, 0x00, 0x0c, 0x00, 0x00, 0x00,
  0x10, 0x00, 0x00, 0x00, 0x02, 0x00, 0x00, 0x00, 0x01, 0x00, 0x00, 0x00,
  0x11, 0x00, 0x00, 0x00, 0x02, 0x00, 0x00, 0x00, 0x10, 0x00, 0x00, 0x00,
  0x0a, 0x00, 0x00, 0x00, 0x7e, 0xff, 0xff, 0xff, 0x14, 0x00, 0x00, 0x00,
  0x00, 0x00, 0x00, 0x05, 0x24, 0x00, 0x00, 0x00, 0x28, 0x00, 0x00, 0x00,
  0x01, 0x00, 0x00, 0x00, 0x6e, 0xff, 0xff, 0xff, 0x02, 0x00, 0x00, 0x00,
  0x02, 0x00, 0x00, 0x00, 0x02, 0x00, 0x00, 0x00, 0x02, 0x00, 0x00, 0x00,
  0x00, 0x00, 0x00, 0x01, 0x01, 0x00, 0x00, 0x00, 0x10, 0x00, 0x00, 0x00,
  0x01, 0x00, 0x00, 0x00, 0x0f, 0x00, 0x00, 0x00, 0x1e, 0xff, 0xff, 0xff,
  0x10, 0x00, 0x00, 0x00, 0x00, 0x00, 0x00, 0x01, 0x1c, 0x00, 0x00, 0x00,
  0x20, 0x00, 0x00, 0x00, 0x10, 0xff, 0xff, 0xff, 0x00, 0x00, 0x00, 0x01,
  0x01, 0x00, 0x00, 0x00, 0x01, 0x00, 0x00, 0x00, 0x00, 0x00, 0x00, 0x01,
  0x01, 0x00, 0x00, 0x00, 0x0f, 0x00, 0x00, 0x00, 0x03, 0x00, 0x00, 0x00,
  0x0e, 0x00, 0x00, 0x00, 0x07, 0x00, 0x00, 0x00, 0x04, 0x00, 0x00, 0x00,
  0x00, 0x00, 0x0e, 0x00, 0x1a, 0x00, 0x14, 0x00, 0x10, 0x00, 0x0c, 0x00,
  0x0b, 0x00, 0x04, 0x00, 0x0e, 0x00, 0x00, 0x00, 0x24, 0x00, 0x00, 0x00,
  0x00, 0x00, 0x00, 0x05, 0x34, 0x00, 0x00, 0x00, 0x38, 0x00, 0x00, 0x00,
  0x01, 0x00, 0x00, 0x00, 0x00, 0x00, 0x0e, 0x00, 0x18, 0x00, 0x17, 0x00,
  0x10, 0x00, 0x0c, 0x00, 0x08, 0x00, 0x04, 0x00, 0x0e, 0x00, 0x00, 0x00,
  0x02, 0x00, 0x00, 0x00, 0x02, 0x00, 0x00, 0x00, 0x02, 0x00, 0x00, 0x00,
  0x02, 0x00, 0x00, 0x00, 0x00, 0x00, 0x00, 0x01, 0x01, 0x00, 0x00, 0x00,
  0x0e, 0x00, 0x00, 0x00, 0x01, 0x00, 0x00, 0x00, 0x0d, 0x00, 0x00, 0x00,
  0xbe, 0xff, 0xff, 0xff, 0x10, 0x00, 0x00, 0x00, 0x00, 0x00, 0x00, 0x01,
  0x1c, 0x00, 0x00, 0x00, 0x20, 0x00, 0x00, 0x00, 0xb0, 0xff, 0xff, 0xff,
  0x00, 0x00, 0x00, 0x01, 0x01, 0x00, 0x00, 0x00, 0x01, 0x00, 0x00, 0x00,
  0x00, 0x00, 0x00, 0x01, 0x01, 0x00, 0x00, 0x00, 0x0d, 0x00, 0x00, 0x00,
  0x03, 0x00, 0x00, 0x00, 0x0c, 0x00, 0x00, 0x00, 0x06, 0x00, 0x00, 0x00,
  0x03, 0x00, 0x00, 0x00, 0x00, 0x00, 0x0e, 0x00, 0x14, 0x00, 0x00, 0x00,
  0x10, 0x00, 0x0c, 0x00, 0x0b, 0x00, 0x04, 0x00, 0x0e, 0x00, 0x00, 0x00,
  0x1c, 0x00, 0x00, 0x00, 0x00, 0x00, 0x00, 0x01, 0x28, 0x00, 0x00, 0x00,
  0x2c, 0x00, 0x00, 0x00, 0x0c, 0x00, 0x14, 0x00, 0x13, 0x00, 0x0c, 0x00,
  0x08, 0x00, 0x07, 0x00, 0x0c, 0x00, 0x00, 0x00, 0x00, 0x00, 0x00, 0x01,
  0x01, 0x00, 0x00, 0x00, 0x01, 0x00, 0x00, 0x00, 0x00, 0x00, 0x00, 0x01,
  0x01, 0x00, 0x00, 0x00, 0x0c, 0x00, 0x00, 0x00, 0x03, 0x00, 0x00, 0x00,
  0x00, 0x00, 0x00, 0x00, 0x05, 0x00, 0x00, 0x00, 0x02, 0x00, 0x00, 0x00,
  0x01, 0x00, 0x00, 0x00, 0x14, 0x00, 0x00, 0x00, 0x01, 0x00, 0x00, 0x00,
  0x00, 0x00, 0x00, 0x00, 0x15, 0x00, 0x00, 0x00, 0xe0, 0x09, 0x00, 0x00,
  0x78, 0x09, 0x00, 0x00, 0x04, 0x09, 0x00, 0x00, 0xa8, 0x08, 0x00, 0x00,
  0x4c, 0x08, 0x00, 0x00, 0xf4, 0x07, 0x00, 0x00, 0x9c, 0x07, 0x00, 0x00,
  0x44, 0x07, 0x00, 0x00, 0xe8, 0x06, 0x00, 0x00, 0x8c, 0x06, 0x00, 0x00,
  0x3c, 0x06, 0x00, 0x00, 0xa8, 0x05, 0x00, 0x00, 0xac, 0x04, 0x00, 0x00,
  0xb0, 0x03, 0x00, 0x00, 0x38, 0x03, 0x00, 0x00, 0x5c, 0x02, 0x00, 0x00,
  0xe4, 0x01, 0x00, 0x00, 0x80, 0x01, 0x00, 0x00, 0xe0, 0x00, 0x00, 0x00,
  0x60, 0x00, 0x00, 0x00, 0x04, 0x00, 0x00, 0x00, 0x8a, 0xf6, 0xff, 0xff,
  0x00, 0x00, 0x00, 0x01, 0x14, 0x00, 0x00, 0x00, 0x1c, 0x00, 0x00, 0x00,
  0x1c, 0x00, 0x00, 0x00, 0x15, 0x00, 0x00, 0x00, 0x34, 0x00, 0x00, 0x00,
  0x02, 0x00, 0x00, 0x00, 0xff, 0xff, 0xff, 0xff, 0x04, 0x00, 0x00, 0x00,
  0x6c, 0xf6, 0xff, 0xff, 0x19, 0x00, 0x00, 0x00, 0x53, 0x74, 0x61, 0x74,
  0x65, 0x66, 0x75, 0x6c, 0x50, 0x61, 0x72, 0x74, 0x69, 0x74, 0x69, 0x6f,
  0x6e, 0x65, 0x64, 0x43, 0x61, 0x6c, 0x6c, 0x3a, 0x30, 0x00, 0x00, 0x00,
  0x02, 0x00, 0x00, 0x00, 0x01, 0x00, 0x00, 0x00, 0x04, 0x00, 0x00, 0x00,
  0xe2, 0xf6, 0xff, 0xff, 0x00, 0x00, 0x00, 0x01, 0x14, 0x00, 0x00, 0x00,
  0x1c, 0x00, 0x00, 0x00, 0x1c, 0x00, 0x00, 0x00, 0x14, 0x00, 0x00, 0x00,
  0x58, 0x00, 0x00, 0x00, 0x02, 0x00, 0x00, 0x00, 0xff, 0xff, 0xff, 0xff,
  0x04, 0x00, 0x00, 0x00, 0xc4, 0xf6, 0xff, 0xff, 0x3c, 0x00, 0x00, 0x00,
  0x73, 0x65, 0x71, 0x75, 0x65, 0x6e, 0x74, 0x69, 0x61, 0x6c, 0x5f, 0x33,
  0x30, 0x2f, 0x64, 0x65, 0x6e, 0x73, 0x65, 0x5f, 0x36, 0x36, 0x2f, 0x4d,
  0x61, 0x74, 0x4d, 0x75, 0x6c, 0x3b, 0x73, 0x65, 0x71, 0x75, 0x65, 0x6e,
  0x74, 0x69, 0x61, 0x6c, 0x5f, 0x33, 0x30, 0x2f, 0x64, 0x65, 0x6e, 0x73,
  0x65, 0x5f, 0x36, 0x36, 0x2f, 0x42, 0x69, 0x61, 0x73, 0x41, 0x64, 0x64,
  0x00, 0x00, 0x00, 0x00, 0x02, 0x00, 0x00, 0x00, 0x01, 0x00, 0x00, 0x00,
  0x04, 0x00, 0x00, 0x00, 0x5e, 0xf7, 0xff, 0xff, 0x00, 0x00, 0x00, 0x01,
  0x14, 0x00, 0x00, 0x00, 0x1c, 0x00, 0x00, 0x00, 0x1c, 0x00, 0x00, 0x00,
  0x13, 0x00, 0x00, 0x00, 0x78, 0x00, 0x00, 0x00, 0x02, 0x00, 0x00, 0x00,
  0xff, 0xff, 0xff, 0xff, 0x40, 0x00, 0x00, 0x00, 0x40, 0xf7, 0xff, 0xff,
  0x5d, 0x00, 0x00, 0x00, 0x73, 0x65, 0x71, 0x75, 0x65, 0x6e, 0x74, 0x69,
  0x61, 0x6c, 0x5f, 0x33, 0x30, 0x2f, 0x64, 0x65, 0x6e, 0x73, 0x65, 0x5f,
  0x36, 0x35, 0x2f, 0x4d, 0x61, 0x74, 0x4d, 0x75, 0x6c, 0x3b, 0x73, 0x65,
  0x71, 0x75, 0x65, 0x6e, 0x74, 0x69, 0x61, 0x6c, 0x5f, 0x33, 0x30, 0x2f,
  0x61, 0x63, 0x74, 0x69, 0x76, 0x61, 0x74, 0x69, 0x6f, 0x6e, 0x5f, 0x36,
  0x35, 0x2f, 0x52, 0x65, 0x6c, 0x75, 0x3b, 0x73, 0x65, 0x71, 0x75, 0x65,
  0x6e, 0x74, 0x69, 0x61, 0x6c, 0x5f, 0x33, 0x30, 0x2f, 0x64, 0x65, 0x6e,
  0x73, 0x65, 0x5f, 0x36, 0x35, 0x2f, 0x42, 0x69, 0x61, 0x73, 0x41, 0x64,
  0x64, 0x00, 0x00, 0x00, 0x02, 0x00, 0x00, 0x00, 0x01, 0x00, 0x00, 0x00,
  0x40, 0x00, 0x00, 0x00, 0xfa, 0xf7, 0xff, 0xff, 0x00, 0x00, 0x00, 0x01,
  0x14, 0x00, 0x00, 0x00, 0x1c, 0x00, 0x00, 0x00, 0x1c, 0x00, 0x00, 0x00,
  0x12, 0x00, 0x00, 0x00, 0x3c, 0x00, 0x00, 0x00, 0x02, 0x00, 0x00, 0x00,
  0xff, 0xff, 0xff, 0xff, 0x50, 0x00, 0x00, 0x00, 0xdc, 0xf7, 0xff, 0xff,
  0x20, 0x00, 0x00, 0x00, 0x73, 0x65, 0x71, 0x75, 0x65, 0x6e, 0x74, 0x69,
  0x61, 0x6c, 0x5f, 0x33, 0x30, 0x2f, 0x66, 0x6c, 0x61, 0x74, 0x74, 0x65,
  0x6e, 0x5f, 0x33, 0x30, 0x2f, 0x52, 0x65, 0x73, 0x68, 0x61, 0x70, 0x65,
  0x00, 0x00, 0x00, 0x00, 0x02, 0x00, 0x00, 0x00, 0x01, 0x00, 0x00, 0x00,
  0x50, 0x00, 0x00, 0x00, 0x5a, 0xf8, 0xff, 0xff, 0x00, 0x00, 0x00, 0x01,
  0x14, 0x00, 0x00, 0x00, 0x24, 0x00, 0x00, 0x00, 0x24, 0x00, 0x00, 0x00,
  0x11, 0x00, 0x00, 0x00, 0x48, 0x00, 0x00, 0x00, 0x04, 0x00, 0x00, 0x00,
  0xff, 0xff, 0xff, 0xff, 0x02, 0x00, 0x00, 0x00, 0x05, 0x00, 0x00, 0x00,
  0x08, 0x00, 0x00, 0x00, 0x44, 0xf8, 0xff, 0xff, 0x26, 0x00, 0x00, 0x00,
  0x73, 0x65, 0x71, 0x75, 0x65, 0x6e, 0x74, 0x69, 0x61, 0x6c, 0x5f, 0x33,
  0x30, 0x2f, 0x6d, 0x61, 0x78, 0x5f, 0x70, 0x6f, 0x6f, 0x6c, 0x69, 0x6e,
  0x67, 0x32, 0x64, 0x5f, 0x34, 0x31, 0x2f, 0x4d, 0x61, 0x78, 0x50, 0x6f,
  0x6f, 0x6c, 0x00, 0x00, 0x04, 0x00, 0x00, 0x00, 0x01, 0x00, 0x00, 0x00,
  0x02, 0x00, 0x00, 0x00, 0x05, 0x00, 0x00, 0x00, 0x08, 0x00, 0x00, 0x00,
  0xce, 0xf8, 0xff, 0xff, 0x00, 0x00, 0x00, 0x01, 0x14, 0x00, 0x00, 0x00,
  0x24, 0x00, 0x00, 0x00, 0x24, 0x00, 0x00, 0x00, 0x10, 0x00, 0x00, 0x00,
  0xac, 0x00, 0x00, 0x00, 0x04, 0x00, 0x00, 0x00, 0xff, 0xff, 0xff, 0xff,
  0x04, 0x00, 0x00, 0x00, 0x0a, 0x00, 0x00, 0x00, 0x08, 0x00, 0x00, 0x00,
  0xb8, 0xf8, 0xff, 0xff, 0x8a, 0x00, 0x00, 0x00, 0x73, 0x65, 0x71, 0x75,
  0x65, 0x6e, 0x74, 0x69, 0x61, 0x6c, 0x5f, 0x33, 0x30, 0x2f, 0x63, 0x6f,
  0x6e, 0x76, 0x32, 0x64, 0x5f, 0x36, 0x32, 0x2f, 0x52, 0x65, 0x6c, 0x75,
  0x3b, 0x73, 0x65, 0x71, 0x75, 0x65, 0x6e, 0x74, 0x69, 0x61, 0x6c, 0x5f,
  0x33, 0x30, 0x2f, 0x63, 0x6f, 0x6e, 0x76, 0x32, 0x64, 0x5f, 0x36, 0x32,
  0x2f, 0x42, 0x69, 0x61, 0x73, 0x41, 0x64, 0x64, 0x3b, 0x73, 0x65, 0x71,
  0x75, 0x65, 0x6e, 0x74, 0x69, 0x61, 0x6c, 0x5f, 0x33, 0x30, 0x2f, 0x63,
  0x6f, 0x6e, 0x76, 0x32, 0x64, 0x5f, 0x36, 0x32, 0x2f, 0x43, 0x6f, 0x6e,
  0x76, 0x32, 0x44, 0x3b, 0x73, 0x65, 0x71, 0x75, 0x65, 0x6e, 0x74, 0x69,
  0x61, 0x6c, 0x5f, 0x33, 0x30, 0x2f, 0x63, 0x6f, 0x6e, 0x76, 0x32, 0x64,
  0x5f, 0x36, 0x32, 0x2f, 0x42, 0x69, 0x61, 0x73, 0x41, 0x64, 0x64, 0x2f,
  0x52, 0x65, 0x61, 0x64, 0x56, 0x61, 0x72, 0x69, 0x61, 0x62, 0x6c, 0x65,
  0x4f, 0x70, 0x00, 0x00, 0x04, 0x00, 0x00, 0x00, 0x01, 0x00, 0x00, 0x00,
  0x04, 0x00, 0x00, 0x00, 0x0a, 0x00, 0x00, 0x00, 0x08, 0x00, 0x00, 0x00,
  0xa6, 0xf9, 0xff, 0xff, 0x00, 0x00, 0x00, 0x01, 0x14, 0x00, 0x00, 0x00,
  0x24, 0x00, 0x00, 0x00, 0x24, 0x00, 0x00, 0x00, 0x0f, 0x00, 0x00, 0x00,
  0x48, 0x00, 0x00, 0x00, 0x04, 0x00, 0x00, 0x00, 0xff, 0xff, 0xff, 0xff,
  0x06, 0x00, 0x00, 0x00, 0x0c, 0x00, 0x00, 0x00, 0x08, 0x00, 0x00, 0x00,
  0x90, 0xf9, 0xff, 0xff, 0x26, 0x00, 0x00, 0x00, 0x73, 0x65, 0x71, 0x75,
  0x65, 0x6e, 0x74, 0x69, 0x61, 0x6c, 0x5f, 0x33, 0x30, 0x2f, 0x6d, 0x61,
  0x78, 0x5f, 0x70, 0x6f, 0x6f, 0x6c, 0x69, 0x6e, 0x67, 0x32, 0x64, 0x5f,
  0x34, 0x30, 0x2f, 0x4d, 0x61, 0x78, 0x50, 0x6f, 0x6f, 0x6c, 0x00, 0x00,
  0x04, 0x00, 0x00, 0x00, 0x01, 0x00, 0x00, 0x00, 0x06, 0x00, 0x00, 0x00,
  0x0c, 0x00, 0x00, 0x00, 0x08, 0x00, 0x00, 0x00, 0x1a, 0xfa, 0xff, 0xff,
  0x00, 0x00, 0x00, 0x01, 0x14, 0x00, 0x00, 0x00, 0x24, 0x00, 0x00, 0x00,
  0x24, 0x00, 0x00, 0x00, 0x0e, 0x00, 0x00, 0x00, 0xcc, 0x00, 0x00, 0x00,
  0x04, 0x00, 0x00, 0x00, 0xff, 0xff, 0xff, 0xff, 0x0c, 0x00, 0x00, 0x00,
  0x18, 0x00, 0x00, 0x00, 0x08, 0x00, 0x00, 0x00, 0x04, 0xfa, 0xff, 0xff,
  0xa9, 0x00, 0x00, 0x00, 0x73, 0x65, 0x71, 0x75, 0x65, 0x6e, 0x74, 0x69,
  0x61, 0x6c, 0x5f, 0x33, 0x30, 0x2f, 0x63, 0x6f, 0x6e, 0x76, 0x32, 0x64,
  0x5f, 0x36, 0x31, 0x2f, 0x52, 0x65, 0x6c, 0x75, 0x3b, 0x73, 0x65, 0x71,
  0x75, 0x65, 0x6e, 0x74, 0x69, 0x61, 0x6c, 0x5f, 0x33, 0x30, 0x2f, 0x63,
  0x6f, 0x6e, 0x76, 0x32, 0x64, 0x5f, 0x36, 0x31, 0x2f, 0x42, 0x69, 0x61,
  0x73, 0x41, 0x64, 0x64, 0x3b, 0x73, 0x65, 0x71, 0x75, 0x65, 0x6e, 0x74,
  0x69, 0x61, 0x6c, 0x5f, 0x33, 0x30, 0x2f, 0x63, 0x6f, 0x6e, 0x76, 0x32,
  0x64, 0x5f, 0x36, 0x32, 0x2f, 0x43, 0x6f, 0x6e, 0x76, 0x32, 0x44, 0x3b,
  0x73, 0x65, 0x71, 0x75, 0x65, 0x6e, 0x74, 0x69, 0x61, 0x6c, 0x5f, 0x33,
  0x30, 0x2f, 0x63, 0x6f, 0x6e, 0x76, 0x32, 0x64, 0x5f, 0x36, 0x31, 0x2f,
  0x43, 0x6f, 0x6e, 0x76, 0x32, 0x44, 0x3b, 0x73, 0x65, 0x71, 0x75, 0x65,
  0x6e, 0x74, 0x69, 0x61, 0x6c, 0x5f, 0x33, 0x30, 0x2f, 0x63, 0x6f, 0x6e,
  0x76, 0x32, 0x64, 0x5f, 0x36, 0x31, 0x2f, 0x42, 0x69, 0x61, 0x73, 0x41,
  0x64, 0x64, 0x2f, 0x52, 0x65, 0x61, 0x64, 0x56, 0x61, 0x72, 0x69, 0x61,
  0x62, 0x6c, 0x65, 0x4f, 0x70, 0x00, 0x00, 0x00, 0x04, 0x00, 0x00, 0x00,
  0x01, 0x00, 0x00, 0x00, 0x0c, 0x00, 0x00, 0x00, 0x18, 0x00, 0x00, 0x00,
  0x08, 0x00, 0x00, 0x00, 0x12, 0xfb, 0xff, 0xff, 0x00, 0x00, 0x00, 0x01,
  0x14, 0x00, 0x00, 0x00, 0x24, 0x00, 0x00, 0x00, 0x24, 0x00, 0x00, 0x00,
  0x0d, 0x00, 0x00, 0x00, 0xcc, 0x00, 0x00, 0x00, 0x04, 0x00, 0x00, 0x00,
  0xff, 0xff, 0xff, 0xff, 0x0e, 0x00, 0x00, 0x00, 0x1a, 0x00, 0x00, 0x00,
  0x08, 0x00, 0x00, 0x00, 0xfc, 0xfa, 0xff, 0xff, 0xa9, 0x00, 0x00, 0x00,
  0x73, 0x65, 0x71, 0x75, 0x65, 0x6e, 0x74, 0x69, 0x61, 0x6c, 0x5f, 0x33,
  0x30, 0x2f, 0x63, 0x6f, 0x6e, 0x76, 0x32, 0x64, 0x5f, 0x36, 0x30, 0x2f,
  0x52, 0x65, 0x6c, 0x75, 0x3b, 0x73, 0x65, 0x71, 0x75, 0x65, 0x6e, 0x74,
  0x69, 0x61, 0x6c, 0x5f, 0x33, 0x30, 0x2f, 0x63, 0x6f, 0x6e, 0x76, 0x32,
  0x64, 0x5f, 0x36, 0x30, 0x2f, 0x42, 0x69, 0x61, 0x73, 0x41, 0x64, 0x64,
  0x3b, 0x73, 0x65, 0x71, 0x75, 0x65, 0x6e, 0x74, 0x69, 0x61, 0x6c, 0x5f,
  0x33, 0x30, 0x2f, 0x63, 0x6f, 0x6e, 0x76, 0x32, 0x64, 0x5f, 0x36, 0x32,
  0x2f, 0x43, 0x6f, 0x6e, 0x76, 0x32, 0x44, 0x3b, 0x73, 0x65, 0x71, 0x75,
  0x65, 0x6e, 0x74, 0x69, 0x61, 0x6c, 0x5f, 0x33, 0x30, 0x2f, 0x63, 0x6f,
  0x6e, 0x76, 0x32, 0x64, 0x5f, 0x36, 0x30, 0x2f, 0x43, 0x6f, 0x6e, 0x76,
  0x32, 0x44, 0x3b, 0x73, 0x65, 0x71, 0x75, 0x65, 0x6e, 0x74, 0x69, 0x61,
  0x6c, 0x5f, 0x33, 0x30, 0x2f, 0x63, 0x6f, 0x6e, 0x76, 0x32, 0x64, 0x5f,
  0x36, 0x30, 0x2f, 0x42, 0x69, 0x61, 0x73, 0x41, 0x64, 0x64, 0x2f, 0x52,
  0x65, 0x61, 0x64, 0x56, 0x61, 0x72, 0x69, 0x61, 0x62, 0x6c, 0x65, 0x4f,
  0x70, 0x00, 0x00, 0x00, 0x04, 0x00, 0x00, 0x00, 0x01, 0x00, 0x00, 0x00,
  0x0e, 0x00, 0x00, 0x00, 0x1a, 0x00, 0x00, 0x00, 0x08, 0x00, 0x00, 0x00,
  0x86, 0xff, 0xff, 0xff, 0x00, 0x00, 0x00, 0x01, 0x20, 0x00, 0x00, 0x00,
  0x3c, 0x00, 0x00, 0x00, 0x0c, 0x00, 0x00, 0x00, 0x00, 0x00, 0x00, 0x09,
  0x54, 0x00, 0x00, 0x00, 0x0c, 0x00, 0x0c, 0x00, 0x00, 0x00, 0x00, 0x00,
  0x08, 0x00, 0x04, 0x00, 0x0c, 0x00, 0x00, 0x00, 0x08, 0x00, 0x00, 0x00,
  0x10, 0x00, 0x00, 0x00, 0x01, 0x00, 0x00, 0x00, 0x00, 0x00, 0x00, 0x00,
  0x00, 0x00, 0x00, 0x00, 0x01, 0x00, 0x00, 0x00, 0xa5, 0xf1, 0xb7, 0x3b,
  0x1d, 0x00, 0x00, 0x00, 0x73, 0x65, 0x71, 0x75, 0x65, 0x6e, 0x74, 0x69,
  0x61, 0x6c, 0x5f, 0x33, 0x30, 0x2f, 0x64, 0x65, 0x6e, 0x73, 0x65, 0x5f,
  0x36, 0x35, 0x2f, 0x4d, 0x61, 0x74, 0x4d, 0x75, 0x6c, 0x00, 0x00, 0x00,
  0x02, 0x00, 0x00, 0x00, 0x40, 0x00, 0x00, 0x00, 0x50, 0x00, 0x00, 0x00,
  0x00, 0x00, 0x16, 0x00, 0x1c, 0x00, 0x18, 0x00, 0x17, 0x00, 0x10, 0x00,
  0x0c, 0x00, 0x08, 0x00, 0x00, 0x00, 0x00, 0x00, 0x00, 0x00, 0x07, 0x00,
  0x16, 0x00, 0x00, 0x00, 0x00, 0x00, 0x00, 0x01, 0x14, 0x00, 0x00, 0x00,
  0x14, 0x00, 0x00, 0x00, 0x0b, 0x00, 0x00, 0x00, 0x00, 0x00, 0x00, 0x02,
  0x2c, 0x00, 0x00, 0x00, 0x70, 0xfc, 0xff, 0xff, 0x1e, 0x00, 0x00, 0x00,
  0x73, 0x65, 0x71, 0x75, 0x65, 0x6e, 0x74, 0x69, 0x61, 0x6c, 0x5f, 0x33,
  0x30, 0x2f, 0x66, 0x6c, 0x61, 0x74, 0x74, 0x65, 0x6e, 0x5f, 0x33, 0x30,
  0x2f, 0x43, 0x6f, 0x6e, 0x73, 0x74, 0x00, 0x00, 0x01, 0x00, 0x00, 0x00,
  0x02, 0x00, 0x00, 0x00, 0x4a, 0xfd, 0xff, 0xff, 0x00, 0x00, 0x00, 0x01,
  0x10, 0x00, 0x00, 0x00, 0x10, 0x00, 0x00, 0x00, 0x0a, 0x00, 0x00, 0x00,
  0x3c, 0x00, 0x00, 0x00, 0xb8, 0xfc, 0xff, 0xff, 0x2d, 0x00, 0x00, 0x00,
  0x73, 0x65, 0x71, 0x75, 0x65, 0x6e, 0x74, 0x69, 0x61, 0x6c, 0x5f, 0x33,
  0x30, 0x2f, 0x64, 0x65, 0x6e, 0x73, 0x65, 0x5f, 0x36, 0x35, 0x2f, 0x42,
  0x69, 0x61, 0x73, 0x41, 0x64, 0x64, 0x2f, 0x52, 0x65, 0x61, 0x64, 0x56,
  0x61, 0x72, 0x69, 0x61, 0x62, 0x6c, 0x65, 0x4f, 0x70, 0x00, 0x00, 0x00,
  0x01, 0x00, 0x00, 0x00, 0x40, 0x00, 0x00, 0x00, 0xa2, 0xfd, 0xff, 0xff,
  0x00, 0x00, 0x00, 0x01, 0x10, 0x00, 0x00, 0x00, 0x10, 0x00, 0x00, 0x00,
  0x09, 0x00, 0x00, 0x00, 0x3c, 0x00, 0x00, 0x00, 0x10, 0xfd, 0xff, 0xff,
  0x2d, 0x00, 0x00, 0x00, 0x73, 0x65, 0x71, 0x75, 0x65, 0x6e, 0x74, 0x69,
  0x61, 0x6c, 0x5f, 0x33, 0x30, 0x2f, 0x64, 0x65, 0x6e, 0x73, 0x65, 0x5f,
  0x36, 0x36, 0x2f, 0x42, 0x69, 0x61, 0x73, 0x41, 0x64, 0x64, 0x2f, 0x52,
  0x65, 0x61, 0x64, 0x56, 0x61, 0x72, 0x69, 0x61, 0x62, 0x6c, 0x65, 0x4f,
  0x70, 0x00, 0x00, 0x00, 0x01, 0x00, 0x00, 0x00, 0x04, 0x00, 0x00, 0x00,
  0xfa, 0xfd, 0xff, 0xff, 0x00, 0x00, 0x00, 0x01, 0x10, 0x00, 0x00, 0x00,
  0x10, 0x00, 0x00, 0x00, 0x08, 0x00, 0x00, 0x00, 0x2c, 0x00, 0x00, 0x00,
  0x68, 0xfd, 0xff, 0xff, 0x1e, 0x00, 0x00, 0x00, 0x73, 0x65, 0x71, 0x75,
  0x65, 0x6e, 0x74, 0x69, 0x61, 0x6c, 0x5f, 0x33, 0x30, 0x2f, 0x63, 0x6f,
  0x6e, 0x76, 0x32, 0x64, 0x5f, 0x36, 0x32, 0x2f, 0x43, 0x6f, 0x6e, 0x76,
  0x32, 0x44, 0x00, 0x00, 0x04, 0x00, 0x00, 0x00, 0x08, 0x00, 0x00, 0x00,
  0x03, 0x00, 0x00, 0x00, 0x03, 0x00, 0x00, 0x00, 0x08, 0x00, 0x00, 0x00,
  0x4e, 0xfe, 0xff, 0xff, 0x00, 0x00, 0x00, 0x01, 0x10, 0x00, 0x00, 0x00,
  0x10, 0x00, 0x00, 0x00, 0x07, 0x00, 0x00, 0x00, 0x2c, 0x00, 0x00, 0x00,
  0xbc, 0xfd, 0xff, 0xff, 0x1e, 0x00, 0x00, 0x00, 0x73, 0x65, 0x71, 0x75,
  0x65, 0x6e, 0x74, 0x69, 0x61, 0x6c, 0x5f, 0x33, 0x30, 0x2f, 0x63, 0x6f,
  0x6e, 0x76, 0x32, 0x64, 0x5f, 0x36, 0x31, 0x2f, 0x43, 0x6f, 0x6e, 0x76,
  0x32, 0x44, 0x00, 0x00, 0x04, 0x00, 0x00, 0x00, 0x08, 0x00, 0x00, 0x00,
  0x03, 0x00, 0x00, 0x00, 0x03, 0x00, 0x00, 0x00, 0x08, 0x00, 0x00, 0x00,
  0xa2, 0xfe, 0xff, 0xff, 0x00, 0x00, 0x00, 0x01, 0x10, 0x00, 0x00, 0x00,
  0x10, 0x00, 0x00, 0x00, 0x06, 0x00, 0x00, 0x00, 0x2c, 0x00, 0x00, 0x00,
  0x10, 0xfe, 0xff, 0xff, 0x1e, 0x00, 0x00, 0x00, 0x73, 0x65, 0x71, 0x75,
  0x65, 0x6e, 0x74, 0x69, 0x61, 0x6c, 0x5f, 0x33, 0x30, 0x2f, 0x63, 0x6f,
  0x6e, 0x76, 0x32, 0x64, 0x5f, 0x36, 0x30, 0x2f, 0x43, 0x6f, 0x6e, 0x76,
  0x32, 0x44, 0x00, 0x00, 0x04, 0x00, 0x00, 0x00, 0x08, 0x00, 0x00, 0x00,
  0x03, 0x00, 0x00, 0x00, 0x03, 0x00, 0x00, 0x00, 0x01, 0x00, 0x00, 0x00,
  0xf6, 0xfe, 0xff, 0xff, 0x00, 0x00, 0x00, 0x01, 0x10, 0x00, 0x00, 0x00,
  0x10, 0x00, 0x00, 0x00, 0x05, 0x00, 0x00, 0x00, 0x3c, 0x00, 0x00, 0x00,
  0x64, 0xfe, 0xff, 0xff, 0x2e, 0x00, 0x00, 0x00, 0x73, 0x65, 0x71, 0x75,
  0x65, 0x6e, 0x74, 0x69, 0x61, 0x6c, 0x5f, 0x33, 0x30, 0x2f, 0x63, 0x6f,
  0x6e, 0x76, 0x32, 0x64, 0x5f, 0x36, 0x32, 0x2f, 0x42, 0x69, 0x61, 0x73,
  0x41, 0x64, 0x64, 0x2f, 0x52, 0x65, 0x61, 0x64, 0x56, 0x61, 0x72, 0x69,
  0x61, 0x62, 0x6c, 0x65, 0x4f, 0x70, 0x00, 0x00, 0x01, 0x00, 0x00, 0x00,
  0x08, 0x00, 0x00, 0x00, 0x4e, 0xff, 0xff, 0xff, 0x00, 0x00, 0x00, 0x01,
  0x10, 0x00, 0x00, 0x00, 0x10, 0x00, 0x00, 0x00, 0x04, 0x00, 0x00, 0x00,
  0x3c, 0x00, 0x00, 0x00, 0xbc, 0xfe, 0xff, 0xff, 0x2e, 0x00, 0x00, 0x00,
  0x73, 0x65, 0x71, 0x75, 0x65, 0x6e, 0x74, 0x69, 0x61, 0x6c, 0x5f, 0x33,
  0x30, 0x2f, 0x63, 0x6f, 0x6e, 0x76, 0x32, 0x64, 0x5f, 0x36, 0x31, 0x2f,
  0x42, 0x69, 0x61, 0x73, 0x41, 0x64, 0x64, 0x2f, 0x52, 0x65, 0x61, 0x64,
  0x56, 0x61, 0x72, 0x69, 0x61, 0x62, 0x6c, 0x65, 0x4f, 0x70, 0x00, 0x00,
  0x01, 0x00, 0x00, 0x00, 0x08, 0x00, 0x00, 0x00, 0xa6, 0xff, 0xff, 0xff,
  0x00, 0x00, 0x00, 0x01, 0x10, 0x00, 0x00, 0x00, 0x10, 0x00, 0x00, 0x00,
  0x03, 0x00, 0x00, 0x00, 0x3c, 0x00, 0x00, 0x00, 0x14, 0xff, 0xff, 0xff,
  0x2e, 0x00, 0x00, 0x00, 0x73, 0x65, 0x71, 0x75, 0x65, 0x6e, 0x74, 0x69,
  0x61, 0x6c, 0x5f, 0x33, 0x30, 0x2f, 0x63, 0x6f, 0x6e, 0x76, 0x32, 0x64,
  0x5f, 0x36, 0x30, 0x2f, 0x42, 0x69, 0x61, 0x73, 0x41, 0x64, 0x64, 0x2f,
  0x52, 0x65, 0x61, 0x64, 0x56, 0x61, 0x72, 0x69, 0x61, 0x62, 0x6c, 0x65,
  0x4f, 0x70, 0x00, 0x00, 0x01, 0x00, 0x00, 0x00, 0x08, 0x00, 0x00, 0x00,
  0x00, 0x00, 0x16, 0x00, 0x18, 0x00, 0x14, 0x00, 0x00, 0x00, 0x10, 0x00,
  0x0c, 0x00, 0x08, 0x00, 0x00, 0x00, 0x00, 0x00, 0x00, 0x00, 0x07, 0x00,
  0x16, 0x00, 0x00, 0x00, 0x00, 0x00, 0x00, 0x01, 0x10, 0x00, 0x00, 0x00,
  0x10, 0x00, 0x00, 0x00, 0x02, 0x00, 0x00, 0x00, 0x2c, 0x00, 0x00, 0x00,
  0x84, 0xff, 0xff, 0xff, 0x1d, 0x00, 0x00, 0x00, 0x73, 0x65, 0x71, 0x75,
  0x65, 0x6e, 0x74, 0x69, 0x61, 0x6c, 0x5f, 0x33, 0x30, 0x2f, 0x64, 0x65,
  0x6e, 0x73, 0x65, 0x5f, 0x36, 0x36, 0x2f, 0x4d, 0x61, 0x74, 0x4d, 0x75,
  0x6c, 0x00, 0x00, 0x00, 0x02, 0x00, 0x00, 0x00, 0x04, 0x00, 0x00, 0x00,
  0x40, 0x00, 0x00, 0x00, 0x00, 0x00, 0x16, 0x00, 0x1c, 0x00, 0x18, 0x00,
  0x00, 0x00, 0x14, 0x00, 0x10, 0x00, 0x0c, 0x00, 0x00, 0x00, 0x00, 0x00,
  0x08, 0x00, 0x07, 0x00, 0x16, 0x00, 0x00, 0x00, 0x00, 0x00, 0x00, 0x01,
  0x14, 0x00, 0x00, 0x00, 0x28, 0x00, 0x00, 0x00, 0x28, 0x00, 0x00, 0x00,
  0x01, 0x00, 0x00, 0x00, 0x48, 0x00, 0x00, 0x00, 0x04, 0x00, 0x00, 0x00,
  0xff, 0xff, 0xff, 0xff, 0x10, 0x00, 0x00, 0x00, 0x1c, 0x00, 0x00, 0x00,
  0x01, 0x00, 0x00, 0x00, 0x04, 0x00, 0x04, 0x00, 0x04, 0x00, 0x00, 0x00,
  0x21, 0x00, 0x00, 0x00, 0x73, 0x65, 0x72, 0x76, 0x69, 0x6e, 0x67, 0x5f,
  0x64, 0x65, 0x66, 0x61, 0x75, 0x6c, 0x74, 0x5f, 0x63, 0x6f, 0x6e, 0x76,
  0x32, 0x64, 0x5f, 0x36, 0x30, 0x5f, 0x69, 0x6e, 0x70, 0x75, 0x74, 0x3a,
  0x30, 0x00, 0x00, 0x00, 0x04, 0x00, 0x00, 0x00, 0x01, 0x00, 0x00, 0x00,
  0x10, 0x00, 0x00, 0x00, 0x1c, 0x00, 0x00, 0x00, 0x01, 0x00, 0x00, 0x00,
  0x05, 0x00, 0x00, 0x00, 0x60, 0x00, 0x00, 0x00, 0x44, 0x00, 0x00, 0x00,
  0x34, 0x00, 0x00, 0x00, 0x20, 0x00, 0x00, 0x00, 0x04, 0x00, 0x00, 0x00,
  0xc0, 0xff, 0xff, 0xff, 0x19, 0x00, 0x00, 0x00, 0x00, 0x00, 0x00, 0x19,
  0x0c, 0x00, 0x10, 0x00, 0x0f, 0x00, 0x00, 0x00, 0x08, 0x00, 0x04, 0x00,
  0x0c, 0x00, 0x00, 0x00, 0x09, 0x00, 0x00, 0x00, 0x09, 0x00, 0x00, 0x00,
  0x00, 0x00, 0x00, 0x09, 0xe8, 0xff, 0xff, 0xff, 0x16, 0x00, 0x00, 0x00,
  0x00, 0x00, 0x00, 0x16, 0xf4, 0xff, 0xff, 0xff, 0x11, 0x00, 0x00, 0x00,
  0x00, 0x00, 0x00, 0x11, 0x0c, 0x00, 0x0c, 0x00, 0x0b, 0x00, 0x00, 0x00,
  0x00, 0x00, 0x04, 0x00, 0x0c, 0x00, 0x00, 0x00, 0x03, 0x00, 0x00, 0x00,
  0x00, 0x00, 0x00, 0x03
};
unsigned int speech_commands_model_tflite_len = 15592;
